<unk>	0
<s>	0
</s>	0
.	-2.96754
,	-3.68992
:	-3.95044
▁	-4.13229
▁பகுப்பு	-4.13487
▁(	-4.81689
்	-4.89014
)	-4.9112
ப்	-5.1709
க்	-5.19993
▁ஊராட்சி	-5.27974
த்	-5.33106
-	-5.36681
ம்	-5.53197
▁மற்றும்	-5.58402
கள்	-5.58923
▁மேற்கோள்கள்	-5.62997
ச்	-5.64118
▁ஒரு	-5.66242
▁இந்த	-5.71189
▁மக்கள்	-5.84815
s	-5.92349
▁ஆகும்	-5.94278
▁உள்ள	-6.01676
▁-	-6.02186
/	-6.02651
▁இது	-6.08215
▁கோயில்	-6.09759
▁இந்திய	-6.10792
▁இவர்	-6.11637
▁ஆண்டு	-6.16764
▁என்பது	-6.19409
▁க	-6.20357
▁என்ற	-6.25357
▁அல்லது	-6.26657
ஆம்	-6.27487
▁வழிமாற்று	-6.29012
▁1	-6.31351
யின்	-6.31947
|	-6.3559
▁உள்ளது	-6.35832
▁7	-6.36112
▁ஆம்	-6.40633
▁of	-6.46648
▁தொகை	-6.47583
▁அமைந்துள்ள	-6.49743
ல்	-6.50391
▁இணைப்புகள்	-6.52949
▁2	-6.53767
▁சட்டமன்றத்	-6.53982
▁=	-6.59029
▁மாவட்டம்	-6.59436
ன்	-6.64371
த	-6.68039
▁the	-6.69366
▁திரைப்படங்கள்	-6.69636
▁இருந்து	-6.6989
▁|	-6.72279
▁மாவட்டத்தில்	-6.73351
▁இக்கோயில்	-6.73524
▁அமைந்துள்ளது	-6.73961
▁வெளி	-6.7456
து	-6.7522
▁துடுப்பாட்ட	-6.75233
யில்	-6.75493
▁தமிழ்நாடு	-6.75872
▁3	-6.76175
"	-6.7635
2	-6.77961
▁இ	-6.79202
▁"	-6.82828
▁அடிப்படை	-6.83046
▁மாவட்ட	-6.83363
▁தொகுதிக்கும்	-6.83666
ர்	-6.84947
▁உள்ளாட்சி	-6.85507
▁வசதிகள்	-6.85973
),	-6.86746
▁பேரும்	-6.8707
ப்படுகிறது	-6.87392
ும்	-6.87528
▁சாலைகள்	-6.87571
▁தேசிய	-6.88333
▁கட்டடங்கள்	-6.885
த்தில்	-6.88665
▁4	-6.8892
▁தொட்டிகள்	-6.88997
px	-6.90711
▁பிறப்புகள்	-6.94038
▁முதல்	-6.94175
▁வரலாறு	-6.94359
▁ஆவார்	-6.95021
▁துடுப்பாட்டப்	-6.96559
க்கு	-6.9782
▁என்னும்	-6.98134
▁2011	-6.98865
(	-6.99956
▁தமிழ்	-7.01748
▁5	-7.01887
ய	-7.02258
ஸ்	-7.02353
▁இக்கோயிலில்	-7.0294
▁பட்டியல்	-7.03768
;	-7.04091
ின்	-7.04597
▁கட்டுரைகள்	-7.05908
சு	-7.0632
களின்	-7.06511
ு	-7.07665
▁6	-7.0779
▁பெண்கள்	-7.08578
▁மாவட்டத்திலுள்ள	-7.10091
▁கோயில்கள்	-7.11386
▁அமைப்பு	-7.11975
▁and	-7.12976
▁தேர்ந்தெடுக்க	-7.15707
களில்	-7.1673
▁சட்டமன்ற	-7.16892
மக்களவைத்	-7.17474
▁இந்து	-7.18572
'	-7.18762
▁நிலை	-7.19224
▁கொண்டுள்ளது	-7.19719
▁கட்சி	-7.21583
▁பார்க்க	-7.22965
த்தின்	-7.23235
://	-7.24966
▁தமிழ்நாட்டின்	-7.25823
▁இந்தியாவின்	-7.25856
▁மொத்த	-7.25992
▁விளையாட்டு	-7.26019
▁உள்ளனர்	-7.26102
▁மேலும்	-7.2624
▁இதன்	-7.27058
க	-7.27932
▁தகவல்	-7.28699
ங்கள்	-7.28856
▁2015	-7.28956
▁சிறு	-7.29135
ணக்கெடுப்பின்படி	-7.29336
சி	-7.29578
▁மேல்	-7.29609
▁ஆண்கள்	-7.30617
▁கி	-7.3188
ன	-7.31924
▁பூசை	-7.32793
▁பி	-7.33353
யும்	-7.33556
▁எண்ணிக்கை	-7.33725
▁வளர்ச்சி	-7.34035
களை	-7.34269
▁கொண்ட	-7.34454
▁தமிழ்நாட்டில்	-7.35062
பி	-7.35101
▁அ	-7.35445
▁உள்ளன	-7.35575
▁ஊரில்	-7.35658
ட்	-7.36234
சரி	-7.36248
3	-7.36447
க்காரர்கள்	-7.3646
▁சான்றுகள்	-7.36514
▁ஒன்றிய	-7.36599
▁பல	-7.36818
▁தமிழ்த்	-7.36841
வாழும்	-7.37071
_	-7.37923
▁பூசைகள்	-7.39401
▁ஆண்டில்	-7.39465
▁வேண்டிய	-7.39673
கா	-7.40295
▁in	-7.40489
▁நிலையங்கள்	-7.40602
டி	-7.40883
க்கப்பட்டுள்ளது	-7.40968
▁இல்	-7.41795
▁thumb	-7.41965
▁#	-7.42164
▁திட்டம்	-7.42381
▁10	-7.42462
ில்	-7.42584
▁மொத்தம்	-7.43196
▁தொகுதி	-7.43765
▁கோயிலாகும்	-7.43804
▁நிர்வகிக்க	-7.44541
▁கட்டுப்பாட்டில்	-7.44644
இந்திய	-7.44685
▁சேர்ந்தது	-7.44984
=	-7.45425
▁8	-7.45837
யை	-7.46089
▁வகைப்பாட்டில்	-7.4669
▁நூற்றாண்டை	-7.46708
▁மாதம்	-7.46827
▁மன்ற	-7.47002
▁கலந்து	-7.47039
▁தொகு	-7.47496
▁என்று	-7.47521
▁அறநிலையத்துறை	-7.47563
▁தானியக்க	-7.48062
▁பேருந்து	-7.48238
மா	-7.48742
▁என	-7.48996
னா	-7.49469
▁முக்கிய	-7.49652
▁வரை	-7.50176
▁ஒருகால	-7.50671
▁உறுப்பினர்கள்	-7.50757
ின்றனர்	-7.51124
▁துறையின்	-7.51144
▁இவற்றில்	-7.51285
▁உட்பட்டதாகும்	-7.52251
▁இவர்களில்	-7.52617
▁அம்மன்	-7.52674
▁ஊரக	-7.52801
▁திருக்கோயில்	-7.52841
▁9	-7.53037
ம	-7.53061
▁பள்ளிக்	-7.53355
வி	-7.53765
▁சேர்ந்த	-7.54397
வின்	-7.5442
ா	-7.54894
▁ஊராட்சிகள்	-7.54988
▁உறுப்பினர்களை	-7.55076
▁ஊராட்சியில்	-7.55478
▁போன்ற	-7.55633
▁மையங்கள்	-7.55822
▁குடிநீர்	-7.56211
▁தொகுதிகளைக்	-7.56912
▁கீழ்க்கண்ட	-7.56945
▁முதன்மைத்	-7.56995
▁சிற்றூர்கள்	-7.57052
▁ஏ	-7.57268
▁நீர்த்தேக்கத்	-7.57407
in	-7.57474
▁குழாய்கள்	-7.57478
▁குளங்கள்	-7.57522
▁மன்றத்	-7.57529
▁ஓர்	-7.57556
▁Panchayat	-7.57949
▁சந்தைகள்	-7.57992
▁தரைமட்ட	-7.58115
▁தரவின்படி	-7.58335
▁நீர்தேக்கத்	-7.58352
மின்விசைக்	-7.58363
▁இடுகாடுகள்	-7.584
கைக்குழாய்கள்	-7.58409
▁சிற்றூர்களின	-7.58537
▁சுடுகாடுகள	-7.58597
வை	-7.58977
▁ஆண்டுத்	-7.58999
▁Gram	-7.61111
1	-7.61202
ரா	-7.61903
▁த	-7.62373
வர்	-7.62411
▁–	-7.62456
▁'	-7.62466
▁நடித்த	-7.62468
▁ஊரணி	-7.63199
▁to	-7.63241
▁நடக்கின்றது	-7.63441
ரி	-7.63813
▁பிரதேச	-7.64396
யா	-7.644
லா	-7.65065
மீ	-7.65127
d	-7.65451
ி	-7.66829
▁திரைப்பட	-7.67209
E	-7.67417
com	-7.67445
▁12	-7.68265
▁பத்தொன்பதாம்	-7.68514
ச	-7.68642
தி	-7.68932
த்தை	-7.69072
▁கே	-7.69253
களும்	-7.69255
▁பரம்பரை	-7.69643
வ	-7.69907
னி	-7.70093
▁கீழ்	-7.70756
வும்	-7.70904
ை	-7.71197
▁அறங்காவலர்	-7.71604
▁வட்டாரத்தில்	-7.71634
4	-7.71895
▁REDIRECT	-7.72069
▁இறப்புகள்	-7.73354
சா	-7.73586
▁ஆகிய	-7.74557
வில்	-7.74634
▁தேர்வுத்	-7.74876
▁15	-7.74916
▁சி	-7.75278
▁அரசியல்வாதிகள்	-7.75357
கி	-7.76586
www	-7.7665
▁A	-7.76802
▁அல்லாத	-7.77047
▁வி	-7.77865
▁11	-7.78504
O	-7.7874
▁அமைப்பால்	-7.78905
▁மொழி	-7.79083
வது	-7.80138
▁சில	-7.80839
▁17	-7.80979
▁The	-7.81359
ப	-7.814
லி	-7.81747
▁இரண்டு	-7.81851
வா	-7.82144
ல	-7.82915
▁எஸ்	-7.82967
%	-7.83698
▁பல்கலைக்கழக	-7.83763
த்த	-7.84068
S	-7.84079
▁நடைபெறுகிறது	-7.84157
▁என்பவர்	-7.84305
▁மூலம்	-7.84377
y	-7.84434
▁பிறப்பு	-7.84545
▁பெயர்	-7.84822
a	-7.84833
▁ச	-7.84898
ed	-7.85115
▁14	-7.85609
▁16	-7.85692
▁காங்கிரசு	-7.8589
▁ஜனதா	-7.86509
▁a	-7.87234
▁ஒன்றாகும்	-7.8849
▁முதல்தர	-7.88589
▁வாரியாக	-7.88823
த்து	-7.89451
▁போட்டிகளில்	-7.89583
யாக	-7.90488
H	-7.90716
▁மே	-7.91275
▁13	-7.91299
▁தி	-7.91428
n	-7.92275
▁டி	-7.92742
▁இங்கு	-7.93092
மாக	-7.93199
▁C	-7.93305
▁S	-7.93402
▁பின்னர்	-7.93485
▁அரசு	-7.9534
தா	-7.95498
மான	-7.95577
ங்	-7.9559
டு	-7.95822
▁for	-7.95836
▁காண்க	-7.95937
க்க	-7.96215
e	-7.96433
ர	-7.96532
▁அனுமதி	-7.96819
ப்பட்ட	-7.97364
▁பயன்படுத்த	-7.97582
60	-7.97605
▁மாநில	-7.97695
▁தனது	-7.97825
A	-7.98144
▁விருது	-7.98514
▁ஆர்	-7.98875
▁கல்வி	-7.98973
i	-7.99073
கு	-7.99181
அ	-7.99788
m	-8.00014
▁பெரிய	-8.00223
ing	-8.01082
பா	-8.01091
al	-8.01485
▁கோ	-8.01546
▁பெருமாள்	-8.01558
மி	-8.01961
▁மக்களவை	-8.02085
▁தொலைக்காட்சி	-8.0231
களுக்கு	-8.02474
புரம்	-8.02491
B	-8.02677
▁உறுப்பினர்	-8.03513
C	-8.03648
▁வெளிவந்த	-8.04008
▁இருக்கும்	-8.04013
வு	-8.04025
▁அன்று	-8.04367
▁அமெரிக்க	-8.04526
க்காரர்	-8.04869
▁on	-8.05198
▁பெண்	-8.05423
இல்	-8.06073
மும்	-8.06103
▁தேர்தல்	-8.06598
▁ஆறு	-8.06769
க்கும்	-8.07157
▁பெற்ற	-8.07257
▁20	-8.07503
t	-8.0793
▁கொண்டுள்ளார்	-8.07965
▁உறுப்பினராக	-8.08224
▁திருவிழாவாக	-8.08667
▁கொண்டு	-8.08771
▁18	-8.08813
▁ப	-8.08841
▁ஒன்று	-8.08855
▁நிலையம்	-8.09233
6	-8.09243
▁+	-8.0935
த்திற்கு	-8.09377
▁அணியின்	-8.09447
▁எம்	-8.09508
5	-8.104
▁சிவன்	-8.10597
er	-8.10733
▁மு	-8.11064
▁காலனி	-8.11455
ங்களில்	-8.11513
ட	-8.11745
▁இலங்கை	-8.12069
இ	-8.1235
ந்த	-8.1251
▁நூற்றாண்டு	-8.12642
▁போட்டிகளிலும்	-8.12688
▁சா	-8.12928
மை	-8.13005
▁இரு	-8.13251
டன்	-8.13612
▁ம	-8.14005
இந்தியத்	-8.14125
▁அறிவியல்	-8.14143
ப்ப	-8.14812
▁நகர்	-8.15295
▁சு	-8.16369
ார்	-8.16497
▁ஆ	-8.17122
▁மேற்கு	-8.17531
▁is	-8.17767
▁இதில்	-8.18256
N	-8.18468
▁வெற்றி	-8.18544
▁மூன்று	-8.18588
ப்பட்டது	-8.18688
▁இங்கிலாந்து	-8.18763
▁இவை	-8.19001
▁என்றும்	-8.1922
▁அரசியல்	-8.19358
ான	-8.19511
▁ஐக்கிய	-8.19937
▁0	-8.20346
▁தேர்தலில்	-8.2073
▁p	-8.21216
▁இவரது	-8.21447
▁சிங்	-8.21659
▁சென்னை	-8.21715
வே	-8.2177
கோ	-8.21913
▁அக்டோபர்	-8.2208
னர்	-8.22118
டா	-8.22383
▁பகுதியில்	-8.22542
▁வகை	-8.22842
x	-8.22972
ப்பு	-8.23015
▁எண்	-8.23099
▁பா	-8.23364
▁மா	-8.23464
▁கல்லூரி	-8.23675
en	-8.23767
P	-8.23887
F	-8.23901
▁ஆண்டுகளில்	-8.23944
ரோ	-8.24239
த்தி	-8.24282
▁கிராமக்	-8.24809
▁மீட்டர்	-8.25356
▁பெற்றார்	-8.25665
▁கா	-8.26318
▁சுருக்கம்	-8.26387
b	-8.2666
▁நாள்	-8.26923
▁இருப்பினும்	-8.27085
▁போது	-8.27246
▁போட்டியிலும்	-8.27437
▁கு	-8.28021
▁2010	-8.28915
ால்	-8.28918
ுள்ளது	-8.29058
▁மாநிலத்தில்	-8.29132
▁பங்குகொண்டார்	-8.29271
http	-8.29451
▁செ	-8.2955
▁திரு	-8.29608
ிய	-8.29848
▁அணி	-8.29886
▁சேர்மங்கள்	-8.29912
M	-8.30011
பூர்	-8.30029
▁பாரதிய	-8.30591
மு	-8.30681
▁பேர்	-8.31223
கர்	-8.3149
▁தொகுதியில்	-8.31673
னை	-8.31961
ங்களின்	-8.32108
ப்பட்டார்	-8.32158
▁எனும்	-8.3223
மே	-8.32271
▁M	-8.3237
▁நவம்பர்	-8.32434
▁இணைப்பு	-8.32539
0%	-8.3263
▁இந்தியா	-8.3265
r	-8.32981
▁மாநிலத்தின்	-8.33214
ரை	-8.33388
களால்	-8.34047
▁2014	-8.34077
right	-8.34135
▁நூல்கள்	-8.34179
p	-8.34536
D	-8.34588
▁வாழ்க்கை	-8.34619
▁கலை	-8.34659
கே	-8.34929
g	-8.35309
▁முறை	-8.36203
K	-8.36228
▁K	-8.36242
c	-8.36483
கை	-8.36704
▁நடைபெற்ற	-8.37031
–	-8.37063
▁இருந்தார்	-8.3713
?	-8.37467
▁P	-8.37496
▁எ	-8.37614
▁ஆவது	-8.37712
▁செப்டம்பர்	-8.37839
▁பகுதி	-8.37888
▁தொடருந்து	-8.38036
களையும்	-8.38064
▁கிழக்கு	-8.38288
▁B	-8.38394
▁http	-8.38641
▁நகரம்	-8.38799
▁ஐ	-8.38859
▁தொகுதிகள்	-8.39251
▁நடிகர்கள்	-8.39344
▁வட	-8.39348
▁25	-8.39614
லை	-8.40165
▁H	-8.40227
▁காணப்படும்	-8.40451
ட்டு	-8.40496
▁தொலைவில்	-8.40759
▁21	-8.40887
▁தா	-8.4108
▁நூல்	-8.41096
னின்	-8.41131
டை	-8.41377
ாக	-8.41437
k	-8.41577
▁19	-8.41631
சன்	-8.41767
▁பிற	-8.41843
8	-8.41919
பட்டி	-8.41934
▁இவற்றையும்	-8.42182
பு	-8.42224
யே	-8.42248
ஜி	-8.42461
▁30	-8.43092
="	-8.43324
▁இந்தியாவில்	-8.43326
▁பாடல்	-8.43342
▁பூ	-8.43675
▁2008	-8.43739
▁என்	-8.43897
▁முறைப்படி	-8.43963
▁அதன்	-8.44029
▁கிராமம்	-8.44136
▁எந்தவொரு	-8.44153
",	-8.44266
ந்து	-8.44446
7	-8.44482
▁குறிப்புகள்	-8.44701
▁வேதியியல்	-8.4508
▁உலக	-8.45118
▁அவர்	-8.45221
▁சிறந்த	-8.45855
தர	-8.45934
ப்பட்டி	-8.46104
▁காணப்படுகிறது	-8.46139
▁சுமார்	-8.46181
▁மாவட்டத்தின்	-8.46186
▁or	-8.46206
▁கிலோமீட்டர்	-8.46648
யாகும்	-8.46665
ரு	-8.46757
an	-8.47048
▁22	-8.4706
களைக்	-8.47181
யான	-8.47243
மாகும்	-8.47253
th	-8.47327
G	-8.47398
▁2009	-8.47574
▁முன்னாள்	-8.47869
▁கொள்ளவில்லை	-8.4817
▁துறை	-8.48573
▁பிறந்தார்	-8.48842
▁கிலோ	-8.48886
▁அடி	-8.49044
▁R	-8.4959
▁தொலைவிலும்	-8.49857
ச்சி	-8.5001
f	-8.50281
▁24	-8.50366
▁நாடாளுமன்ற	-8.50373
▁பொதுவாக	-8.50609
o	-8.50884
யிலிருந்து	-8.51365
▁by	-8.51418
▁துணை	-8.51443
▁போர்	-8.51898
▁கால	-8.52006
▁2013	-8.52177
ே	-8.52215
ட்டி	-8.52523
▁இசை	-8.52531
வ்	-8.5258
0	-8.53007
▁23	-8.531
▁வெளியிணைப்புகள்	-8.53864
கம்	-8.53893
▁திரைப்படம்	-8.53932
▁மூலக்கூற்று	-8.54002
ுக்கு	-8.54235
▁திகதி	-8.54352
ப்பட்டு	-8.54527
l	-8.5455
▁தெற்கு	-8.54638
▁ஏப்ரல்	-8.54805
ரே	-8.55286
▁கிராமங்கள்	-8.55478
▁வடக்கு	-8.5589
▁நெடுஞ்சாலை	-8.55979
▁போட்டியில்	-8.56039
க்கா	-8.56066
▁&	-8.56095
▁நாட்டின்	-8.56315
ப்படும்	-8.56463
▁உ	-8.56504
▁மதுரை	-8.5684
லோ	-8.56845
▁விபரக்குறிப்பு	-8.57086
org	-8.57228
▁at	-8.57254
▁தொடங்கிய	-8.57577
▁விளையாட்டுவீரர்	-8.57883
▁G	-8.58153
▁இருந்த	-8.58212
▁2012	-8.58222
▁ஆனால்	-8.58605
▁நான்கு	-8.58739
▁சனவரி	-8.58789
▁கொண்டது	-8.58794
9	-8.59232
▁ஓ	-8.59382
ங்களும்	-8.5955
▁2006	-8.59615
▁பல்வேறு	-8.59903
வன்	-8.59935
T	-8.59976
ள	-8.60011
▁ந	-8.60218
தமிழ்த்	-8.60449
▁26	-8.6062
▁உட்பட்ட	-8.60669
▁கடைசியாக	-8.60868
▁கட்சியின்	-8.60951
▁படி	-8.61057
▁2016	-8.61152
▁பார்க்கவும்	-8.61486
▁D	-8.61718
▁உசாத்துணை	-8.61995
▁திட்டத்தின்	-8.62512
▁நிறுவனம்	-8.62621
▁பு	-8.6321
▁மத்திய	-8.63249
▁காங்கிரஸ்	-8.63492
▁நீர்	-8.6369
னோ	-8.63695
▁பார்க்கப்பட்ட	-8.63867
▁போ	-8.64146
▁ஊர்களும்	-8.6419
▁2001	-8.64404
ப்பட்டுள்ளது	-8.64773
▁இறப்பு	-8.64861
▁{{	-8.64914
▁புவியியல்	-8.64966
▁தற்போது	-8.65042
▁புதிய	-8.65242
இங்கிலாந்துத	-8.65254
லே	-8.65312
ரின்	-8.65415
▁மலை	-8.65446
ப்பா	-8.66013
id	-8.66067
▁கை	-8.66142
தை	-8.66243
▁27	-8.664
▁து	-8.66512
ங்களை	-8.66656
க்கி	-8.66712
போ	-8.66789
▁செய்து	-8.66978
▁நகரங்களும்	-8.67522
▁மிகவும்	-8.67576
▁கடல்	-8.67628
▁கிராம	-8.67771
▁வட்டம்	-8.67805
▁ஜி	-8.67837
தாக	-8.6831
களுடன்	-8.68352
▁28	-8.68526
es	-8.6872
▁N	-8.68812
▁F	-8.68873
I	-8.69028
நாடு	-8.69093
▁சதுர	-8.69159
▁T	-8.69164
or	-8.69192
R	-8.69427
]	-8.69524
▁பெ	-8.69614
▁தமிழக	-8.69678
20	-8.69785
▁தென்	-8.69981
▁பணி	-8.70093
ூர்	-8.70121
▁சிவ	-8.70212
மன்	-8.70302
https	-8.7031
ளி	-8.70455
ட்டா	-8.70729
▁2019	-8.70905
▁போட்டியிட்டு	-8.70958
10	-8.71037
▁from	-8.71045
v	-8.71114
ப்படுகின்றன	-8.71177
▁J	-8.7122
▁ஆசிரியர்கள்	-8.71274
▁அரசியல்வாதி	-8.71484
▁அமைவிடம்	-8.71525
▁பள்ளி	-8.71654
▁பற்றிய	-8.71724
▁திரைப்படமாகும்	-8.71777
▁பிறகு	-8.71865
▁சார்ந்த	-8.71918
u	-8.72236
▁தஞ்சாவூர்	-8.72261
▁இரண்டாம்	-8.72543
யுடன்	-8.72651
தமிழ்	-8.72685
பிறப்பு	-8.72709
▁இருந்தது	-8.72853
}}	-8.72896
▁E	-8.73331
▁வருவாய்	-8.73409
▁அருகில்	-8.73543
▁2007	-8.73984
▁பொது	-8.74318
▁இதனையும்	-8.74373
▁India	-8.74525
ண	-8.74551
▁மீ	-8.74704
லாம்	-8.74763
▁with	-8.7528
சோ	-8.75367
▁சோ	-8.75375
▁கதை	-8.75464
களாக	-8.75508
ற்ற	-8.75619
▁ஆண்	-8.75681
▁right	-8.75858
▁சிறிய	-8.75871
டோ	-8.75886
▁உள்ளார்	-8.75977
▁நா	-8.76083
▁சமூக	-8.76206
▁முடிந்த	-8.76362
on	-8.76408
▁2005	-8.76477
▁விட	-8.76491
▁மக்கள்தொகை	-8.76649
thumb	-8.76888
யு	-8.7708
▁ஒ	-8.77554
▁அதிக	-8.77622
▁சூலை	-8.77831
▁ஆய்வு	-8.77933
▁இலக்கிய	-8.78023
▁மிக	-8.78119
▁{	-8.78167
▁பொருள்	-8.78214
▁விகிதம்	-8.78442
▁பன்னாட்டு	-8.78695
▁--	-8.78989
▁சின்ன	-8.79095
▁அரச	-8.79542
▁திராவிட	-8.79576
▁ஸ்ரீ	-8.79687
V	-8.79875
▁சிறப்பு	-8.80161
▁பின்	-8.80188
▁முன்னேற்றக்	-8.80208
▁W	-8.8023
>	-8.80325
▁கழக	-8.80506
▁நெல்	-8.80552
▁ஆகியோர்	-8.80661
▁தன்	-8.80747
html	-8.80793
▁இந்தியத்	-8.80832
▁இசையமைத்த	-8.8099
▁வார்ப்புரு	-8.81251
ly	-8.81528
யால்	-8.8166
▁be	-8.8169
▁ஆக்கைவில	-8.81803
ஷ்	-8.81885
க்கான	-8.81889
▁சேர்மமாகும்	-8.81947
▁ஈ	-8.81978
▁எழுத்தாளர்கள்	-8.82092
துப்புரவு	-8.82245
▁2004	-8.8243
▁தொழில்	-8.82482
▁அந்த	-8.82531
▁2021	-8.82537
▁மட்டுமே	-8.82629
▁நி	-8.82646
▁சூன்	-8.82729
▁அரசியல்வாதியும்	-8.82765
மோ	-8.82804
▁பிரிவு	-8.8294
▁ஆக	-8.83021
▁)	-8.83065
யம்	-8.83291
▁வழக்கு	-8.83341
▁ஐந்து	-8.83476
ணி	-8.83724
யர்	-8.83729
▁29	-8.83762
▁2018	-8.83767
▁மணி	-8.84013
le	-8.8417
பாளையம்	-8.8443
செ	-8.84534
▁மார்ச்	-8.84616
',	-8.8464
▁இடம்	-8.85193
யோ	-8.8546
த்துடன்	-8.8589
▁காலத்தில்	-8.85953
▁மாநிலத்திலுள்ள	-8.86018
▁I	-8.86058
▁காலம்	-8.8697
▁கட்டுரை	-8.87011
று	-8.8706
▁ஆகத்து	-8.8709
த்தா	-8.87236
னார்	-8.87365
▁வந்த	-8.87565
▁விக்கிப்பீடியா	-8.87586
லு	-8.87805
ur	-8.87886
▁ஆட்சி	-8.8789
யி	-8.87945
▁பொ	-8.88114
L	-8.88219
▁31	-8.88223
▁போக்குவரத்து	-8.8829
ங்கி	-8.88302
▁இலங்கையின்	-8.88338
எஸ்	-8.88355
மலை	-8.88517
▁பாதுகாப்பு	-8.88544
▁சராசரி	-8.88559
▁குழு	-8.88668
ஏ	-8.88708
▁தே	-8.88999
▁புற	-8.89169
us	-8.89382
அழைக்கப்படுகிறது	-8.8957
▁செய்ய	-8.89591
ுள்ள	-8.89621
▁மி	-8.89868
▁|-	-8.90083
▁திருவிழா	-8.90371
ள்	-8.90438
▁தலைவர்	-8.90456
▁பட்டம்	-8.90477
AE	-8.90603
▁தயாரிப்பு	-8.90861
▁பெற்று	-8.90941
ங்க	-8.90963
▁தொடர்பான	-8.91204
▁அடிப்படையில்	-8.91329
h	-8.91363
ஆ	-8.91391
▁2017	-8.91529
▁மின்	-8.91899
▁பழைய	-8.91954
ar	-8.92332
ுதல்	-8.9242
▁அவை	-8.92928
▁வ	-8.93067
▁குரு	-8.93133
▁வரும்	-8.9315
▁சாலை	-8.93206
ான்	-8.93238
▁அணை	-8.93246
em	-8.93335
னே	-8.9339
if	-8.93984
▁சமய	-8.94116
▁உறுப்பினரும்	-8.94276
▁பிப்ரவரி	-8.94292
▁அண்ணா	-8.94343
▁தொகுதிகளில்	-8.94365
▁பணியாற்றினார்	-8.94453
▁2011.	-8.94561
18	-8.94985
பர்	-8.95187
12	-8.952
▁நபர்கள்	-8.95361
▁உயர்	-8.95434
▁100	-8.95441
ய்	-8.95521
▁அமைந்த	-8.95606
▁தெ	-8.9567
ங்கு	-8.95697
▁பால	-8.9576
▁வட்டத்தில்	-8.95769
▁image	-8.95877
▁நகர	-8.96013
தே	-8.96061
▁குமார்	-8.9623
am	-8.96768
▁நாடு	-8.96771
▁Assembly	-8.96771
"]	-8.96816
▁அரசின்	-8.97129
ச்ச	-8.97152
▁வானூர்தி	-8.97204
30	-8.97241
வோ	-8.97363
▁நாடுகள்	-8.97488
▁தெலுங்கு	-8.97569
▁வேண்டும்	-8.97611
11	-8.97683
▁காரணமாக	-8.9787
ட்ட	-8.98163
▁மனித	-8.9817
▁இணை	-8.98194
▁L	-8.98305
J	-8.98488
த்திலிருந்து	-8.98613
W	-8.9872
▁எழுதிய	-8.98734
▁தளம்	-8.989
ுகிறது	-8.98954
டே	-8.98965
▁இருப்பதால்	-8.98974
லின்	-8.99012
▁உற்பத்தி	-8.99058
▁தோ	-8.99292
▁கோவில்	-8.99387
▁அளவு	-8.99475
▁ஆராய்ச்சி	-8.99479
▁வீர	-8.99563
▁வழியாக	-8.99712
▁ஹ	-8.99752
▁நகரில்	-8.99813
▁திசம்பர்	-8.99822
▁புது	-9
▁பே	-9.00143
ிலிருந்து	-9.00481
▁அல்	-9.00647
▁பாடல்கள்	-9.00654
▁வீரர்கள்	-9.00712
▁முன்	-9.00957
போது	-9.00984
▁விநாயகர்	-9.0134
▁தீ	-9.01492
▁சீ	-9.01494
அமெரிக்க	-9.01631
▁["	-9.01663
▁பகுதிகள்	-9.01808
ic	-9.01832
▁2024	-9.01982
நகர்	-9.01991
▁இட	-9.02148
▁வா	-9.02273
களுள்	-9.02335
மங்கலம்	-9.02343
man	-9.024
▁எழுத்தாளர்	-9.02444
▁தலைமை	-9.02578
▁ஆசிரியர்	-9.02751
ுடன்	-9.02963
▁ஊர்	-9.03143
▁தீவு	-9.03181
யைக்	-9.03234
▁நடைமுறை	-9.03306
▁தொகுதிக்கு	-9.03307
19	-9.03519
▁end	-9.03534
▁பிரித்தானிய	-9.03559
களைப்	-9.03569
na	-9.03587
um	-9.0365
▁இதை	-9.03837
▁மீது	-9.03879
▁பால்	-9.03893
▁திருவண்ணாமலை	-9.03958
▁தந்தை	-9.04066
▁வணிக	-9.04113
உ	-9.04206
▁கனிமங்கள்	-9.04247
▁கேரள	-9.04311
▁தொடர்ந்து	-9.04358
▁2020	-9.04396
யன்	-9.044
▁உணவு	-9.04456
▁தலை	-9.04505
ண்டு	-9.0456
▁கல்வியறிவு	-9.04571
த்திலும்	-9.04624
▁நில	-9.04714
▁தர	-9.04844
▁de	-9.04851
வியல்	-9.04862
▁as	-9.04873
▁விவரிக்கப்படும்	-9.04982
▁நடிகைகள்	-9.0501
▁இவருக்கு	-9.05015
▁கெ	-9.05091
▁local	-9.05138
▁பல்கலைக்கழகம்	-9.05153
il	-9.05168
▁நிற	-9.05186
▁ஒரே	-9.05366
▁இயற்கை	-9.05425
▁எனப்படும்	-9.05471
▁மெ	-9.05513
ோர்	-9.05583
▁பொறியியல்	-9.05883
▁இயக்கத்தில்	-9.05984
III	-9.0606
▁கருதப்படுகிறது	-9.0622
▁கரிம	-9.06244
▁எழுத்தறிவு	-9.06347
ta	-9.06386
▁ஆண்டின்	-9.06597
ரியா	-9.06767
▁ஏரி	-9.06767
▁return	-9.06792
▁கார்	-9.06878
▁சேர்த்து	-9.06909
ிருச்சிராப்பள்ளி	-9.07119
▁விருதுகள்	-9.07246
ற	-9.07456
▁ஆடி	-9.07466
சை	-9.07467
னூர்	-9.07469
▁மாநிலம்	-9.07975
▁இதனை	-9.07977
▁வகைகள்	-9.08158
த்திற்கான	-9.08273
▁ஆவர்	-9.08378
▁நாட்டு	-9.08383
▁கோட்டை	-9.08421
▁2023	-9.08458
▁சேர்ந்தவர்	-9.08483
▁1996	-9.08489
▁மகா	-9.08532
▁செயலாளர்	-9.0855
▁தொடர்	-9.08558
▁வங்காள	-9.08563
சின்	-9.08591
&	-9.08646
▁ஸ்	-9.08817
▁இன	-9.08936
▁மேற்கோள்	-9.09082
▁2000	-9.09114
▁ஜ	-9.09121
▁அது	-9.092
▁டிசம்பர்	-9.09255
▁அனைத்து	-9.09429
▁வருகிறது	-9.09474
▁2022	-9.09507
is	-9.0957
▁வாய்ப்பாட்டால்	-9.09598
▁பை	-9.09599
▁தலைநகரான	-9.09727
ஜ்	-9.09776
▁50	-9.09831
▁விழுப்புரம்	-9.09893
▁constituency	-9.09913
▁}	-9.09969
▁ஒவ்வொரு	-9.10085
ந	-9.1009
ஜ	-9.10258
w	-9.10292
▁இயக்குநர்	-9.10534
தோ	-9.10579
▁கான்	-9.10783
ர்கள்	-9.1081
▁redirect	-9.10903
▁செல்லும்	-9.10922
▁ர	-9.11041
▁மாவட்டங்கள்	-9.11059
▁நடித்திருந்தனர்	-9.11251
யானது	-9.11576
ோ	-9.11583
வான்	-9.11598
▁நடிகர்	-9.11598
24	-9.11802
▁பரிசு	-9.11854
▁குறிப்பிடத்தக்க	-9.12022
யூர்	-9.12045
▁ஒன்றியம்	-9.12107
▁நிறுவனங்கள்	-9.12112
▁இந்தப்	-9.12183
14	-9.12236
▁வினை	-9.12336
▁மற்ற	-9.12654
க்கோ	-9.12686
வால்	-9.12694
ாகும்	-9.127
நிலை	-9.12751
▁இணைந்து	-9.12934
The	-9.12977
▁இச்சேர்மம்	-9.12977
▁பெரும்பாலும்	-9.12988
▁சட்டப்	-9.1307
▁வெ	-9.13158
▁கனிம	-9.13161
▁மருத்துவ	-9.13231
▁பிரி	-9.13232
U	-9.13299
சே	-9.13413
க்கள்	-9.13453
▁ஒளி	-9.13521
▁படம்	-9.13703
னு	-9.13719
வரை	-9.13741
▁இன்	-9.14015
▁சேவை	-9.14104
▁சே	-9.14192
▁தமிழர்	-9.14272
▁சட்ட	-9.14338
களிலும்	-9.14498
▁நிகழ்வுகள்	-9.14567
▁ஒருநாள்	-9.14667
▁[	-9.14809
ப்பி	-9.1482
▁தில்லி	-9.14876
▁அவரது	-9.15012
நா	-9.15292
▁முடிவுகள்	-9.15318
தால்	-9.15322
ிலும்	-9.15523
+	-9.15528
▁குறிக்கும்	-9.15656
▁நாடுகளில்	-9.15772
தன்	-9.1578
▁V	-9.15831
25	-9.16035
மணி	-9.1604
▁2003	-9.16049
▁உருவாகிறது	-9.16123
▁தயாரிக்க	-9.16213
எம்	-9.16299
▁வழி	-9.16595
▁<	-9.16656
தல்	-9.16719
▁இந்தியப்	-9.16754
▁பன்னாட்டுத்	-9.17045
▁→	-9.17282
▁பற்றி	-9.17512
▁சேலம்	-9.17534
ம்பட்டி	-9.17597
த்துக்கு	-9.17608
▁நீளம்	-9.17622
ia	-9.18064
▁பிறந்த	-9.18087
▁1999	-9.18131
00	-9.18141
▁உயரத்தில்	-9.18223
▁கொ	-9.18324
’	-9.18385
▁பெரும்	-9.18521
▁பெயரில்	-9.18534
▁இவரின்	-9.18558
▁மக்களின்	-9.18565
▁இரண்டாவது	-9.18635
▁முருகன்	-9.18657
▁மூன்றாம்	-9.18686
▁பிரதேசம்	-9.18716
▁பிர	-9.18734
▁நடந்த	-9.18762
▁சுவரொட்டிகள்	-9.18826
த்தால்	-9.18995
▁கிராமத்தில்	-9.19054
13	-9.19171
▁திரைப்படச்	-9.19192
சாமி	-9.19433
▁பட	-9.1945
யார்	-9.19458
15	-9.1954
▁செய்யப்பட்ட	-9.19748
▁இத்திரைப்பட	-9.19808
▁செல்ல	-9.19918
16	-9.19975
▁1980	-9.19987
வர்கள்	-9.20014
▁திருநெல்வேலி	-9.20082
▁படை	-9.20084
▁பயிற்சி	-9.20096
▁2002	-9.20184
▁கணினி	-9.20215
21	-9.20309
▁ஆங்கில	-9.20353
▁தொகையில்	-9.20377
co	-9.20391
ஆங்கிலம்	-9.20415
▁மகன்	-9.20416
▁நகரங்கள்	-9.20451
யூ	-9.2047
▁நெ	-9.20473
சீ	-9.20488
▁போட்டி	-9.20534
▁நல்ல	-9.20569
▁சங்க	-9.20768
z	-9.21001
▁style	-9.21001
▁1991	-9.21131
சர்	-9.21207
▁உருவாக்க	-9.21236
22	-9.21246
▁மேல	-9.21356
▁பெற்றது	-9.21394
▁தலைவராக	-9.21456
▁உண்டு	-9.21524
▁பறவைகள்	-9.21942
▁மாரியம்மன்	-9.22023
▁40	-9.22206
▁புதுக்கோட்டை	-9.22252
et	-9.2227
26	-9.22408
▁நிர்வாக	-9.22454
▁University	-9.22479
▁சன்னதி	-9.2248
ஐ	-9.22586
▁ஆகியவை	-9.22595
ழ	-9.22736
பன்	-9.22822
▁கிருஷ்ணகிரி	-9.23071
▁சேர்ந்து	-9.23137
▁இதழ்கள்	-9.23191
29	-9.23221
▁}}	-9.23224
▁மீண்டும்	-9.23246
ங்களுக்கு	-9.23334
ation	-9.23366
தம்	-9.23448
லூர்	-9.2346
ங்கா	-9.23558
ra	-9.23602
க்காக	-9.23795
தஞ்சாவூர்	-9.23807
▁தொகுதியாகும்	-9.23855
▁1990	-9.23872
▁அருகே	-9.23882
ராக	-9.23888
▁தேவி	-9.23905
▁மாத	-9.24218
▁template	-9.24371
23	-9.24374
ரிய	-9.24383
▁ஆற்றின்	-9.24424
▁பகுதிகளில்	-9.24442
ுள்ளார்	-9.24515
யிலும்	-9.24551
▁புனித	-9.24623
நி	-9.24698
த்தைச்	-9.24727
மான்	-9.24782
பே	-9.24789
re	-9.24797
▁குறிப்பு	-9.24961
எ	-9.25012
▁நிலுவையில	-9.25085
ட்டை	-9.25112
கன்	-9.25146
▁வர	-9.25216
டர்	-9.2522
and	-9.25353
தான்	-9.25376
left	-9.25445
▁இடத்தில்	-9.25556
▁காணப்படுகின்றன	-9.25686
▁page	-9.25689
ரம்	-9.2573
▁நிருவாகியா	-9.25736
▁டை	-9.25809
)(	-9.25925
▁காந்தி	-9.25954
▁not	-9.25973
▁ஒன்றியத்தில்	-9.26053
▁போல	-9.26125
றி	-9.26237
▁ரா	-9.2631
▁ஒருவர்	-9.26328
▁நாக	-9.26338
▁இல்லை	-9.26438
▁இயக்க	-9.26534
▁கடலூர்	-9.26547
Y	-9.26577
▁செய்த	-9.2658
ப்பட	-9.26618
▁ஜா	-9.26619
▁ஆண்டுகள்	-9.26641
க்கல்	-9.26703
▁முதலில்	-9.26724
▁New	-9.26873
▁அளவில்	-9.26893
▁குறிப்பிட	-9.26913
▁கீழ	-9.26956
▁மோ	-9.2702
▁செய்தி	-9.27146
28	-9.27186
el	-9.27291
!	-9.27371
Cl	-9.27402
▁உட்பட்டது	-9.27488
களுக்கான	-9.27541
▁பார்	-9.27556
▁name	-9.27639
ந்தி	-9.27769
▁நிறுவப்பட்டது	-9.27802
▁வேலூர்	-9.27817
▁சுவாமி	-9.2784
ப்பட்டுள்ளன	-9.2795
:18	-9.27993
▁*	-9.28201
j	-9.28241
▁ஆதாரங்கள்	-9.28278
ஆர்	-9.28284
தொகுதியிலிருந்து	-9.28297
ul	-9.28347
ne	-9.28354
யையும்	-9.28415
வாய்	-9.28564
ஜா	-9.28632
50	-9.28677
▁குழந்தைகள்	-9.28704
▁வெள்ளை	-9.28733
வாக	-9.28757
▁இரா	-9.28804
▁பலர்	-9.28804
la	-9.28869
▁சிவகங்கை	-9.29018
▁சந்திர	-9.29158
▁வெளியான	-9.29213
பூ	-9.29309
▁60	-9.29336
▁பறவை	-9.29345
னால்	-9.29347
▁பூங்கா	-9.29577
▁ரி	-9.29749
▁கரு	-9.30006
▁சங்கம்	-9.30033
▁குறிப்பிட்ட	-9.30042
யைப்	-9.30245
படி	-9.30267
▁பதிப்பு	-9.30275
▁சொல்	-9.30351
▁அதில்	-9.30407
▁In	-9.30488
it	-9.30508
▁வாக்குகள்	-9.30709
▁பேரூராட்சி	-9.30804
to	-9.309
▁if	-9.30903
ண்டி	-9.30908
▁மர	-9.31062
தர்	-9.31103
▁ராம்	-9.3112
இலங்கை	-9.31135
▁ஆந்திரப்	-9.31213
▁தனி	-9.31284
17	-9.31369
▁வே	-9.31374
at	-9.31424
▁35	-9.31448
▁தொகுப்பு	-9.31589
ad	-9.31646
[	-9.31649
▁எல்	-9.3173
▁O	-9.31779
▁உள்ளிட்ட	-9.31844
ச்சு	-9.31954
▁வார்ப்புருக்கள்	-9.31954
ந்தா	-9.31964
ஞ்சி	-9.32083
▁பெற்றவர்	-9.32121
▁நியூ	-9.3254
▁அகாதமி	-9.32587
▁ஆனார்	-9.32594
▁பரப்பளவு	-9.32607
▁முதன்மை	-9.32768
▁இதற்கு	-9.32787
▁தேவ	-9.33397
▁1967	-9.33422
▁கல்லூரியில்	-9.33518
of	-9.33649
தாகும்	-9.33669
▁எதிர்	-9.33728
சென்னை	-9.33764
▁நிலையில்	-9.33883
as	-9.33908
ma	-9.34372
ிற்கு	-9.34435
▁முடியும்	-9.34593
07	-9.3463
06	-9.34738
▁மொழியில்	-9.34895
▁இதனால்	-9.34898
▁ஈரோடு	-9.3497
மானது	-9.35001
குடி	-9.35019
▁பாலின	-9.35022
▁மாற்ற	-9.35315
▁Re	-9.35337
01	-9.35399
▁பாட	-9.35764
▁உரை	-9.359
பதி	-9.35922
ri	-9.36198
ஹா	-9.36239
▁பக்கம்	-9.36275
li	-9.3642
ண்ட	-9.36421
▁use	-9.36522
வர	-9.36522
ya	-9.36615
▁s	-9.36735
ரும்	-9.36879
ஆவது	-9.36886
▁கிரிக்க	-9.36957
▁சிவாகம	-9.37002
ter	-9.37085
▁மூல	-9.37103
▁பதவி	-9.37268
▁மாநிலமான	-9.37333
▁குழந்தை	-9.37342
ang	-9.37385
name	-9.375
▁1998	-9.37519
இந்து	-9.37521
▁கட்ட	-9.37521
32	-9.37564
]]	-9.37593
▁Census	-9.37675
றை	-9.37682
▁மன்னர்	-9.37812
▁ஆதி	-9.3792
▁தற்போதைய	-9.38013
▁ஆசிய	-9.38112
▁வரிசை	-9.38142
▁உருவாக்கப்பட்ட	-9.38242
▁பகுதியாகும்	-9.38252
▁this	-9.38308
நாடுகள்	-9.38382
▁கூடிய	-9.38389
▁குறித்த	-9.38477
▁பண்டைய	-9.38681
▁குறைந்த	-9.38745
40	-9.39076
▁கூ	-9.39089
ol	-9.39127
▁பட்ட	-9.39355
II	-9.39365
st	-9.39558
▁முதலாம்	-9.39614
மொழி	-9.39658
▁ஜே	-9.3977
▁Category	-9.39824
▁காட்சி	-9.39853
ற்று	-9.39866
▁data	-9.39883
ion	-9.3989
▁நாடக	-9.39908
▁லா	-9.3999
▁குடும்பத்தில்	-9.40001
கல்	-9.4001
என்	-9.40017
▁நடு	-9.40072
▁வடிவ	-9.40115
▁வீரர்	-9.40181
▁பெற்றவர்கள்	-9.40234
03	-9.40246
▁விழா	-9.40246
ண்டா	-9.40276
களுக்கும்	-9.40294
▁வகையில்	-9.40341
▁நகரத்தில்	-9.40403
வழி	-9.40419
▁விமான	-9.40494
▁ஆறுகள்	-9.40585
▁பெரு	-9.40725
▁c	-9.40744
37	-9.40882
▁தேதி	-9.40906
▁மலேசியா	-9.40983
▁website	-9.40996
▁எனவும்	-9.41008
▁சட்டம்	-9.41096
கிரி	-9.41125
ிருக்கும்	-9.41157
கிறது	-9.41185
தமிழ்நாடு	-9.4119
▁வெப்ப	-9.41195
▁நூற்றாண்டில்	-9.41223
ைக்	-9.41243
▁கிளை	-9.41251
▁பாரம்பரிய	-9.41312
news	-9.41338
ளை	-9.41509
பாய்	-9.41579
பை	-9.41606
இந்தியப்	-9.4189
▁பீ	-9.41966
▁இலங்கையில்	-9.42022
தில்	-9.42033
▁வை	-9.42064
▁அமைப்புகள்	-9.42167
▁உதவி	-9.4227
ண்	-9.42282
▁மேற்பட்ட	-9.42301
▁தூத்துக்குடி	-9.42415
te	-9.42423
▁மத	-9.42542
▁தாவர	-9.42568
▁நிகழ்ச்சிகள்	-9.42692
சியா	-9.42708
▁சூ	-9.42859
ch	-9.42873
▁காஞ்சிபுரம்	-9.4297
ுள்ளன	-9.43037
லில்	-9.43118
▁மீன்	-9.43149
▁முன்பு	-9.43169
க்குடி	-9.43206
சார்	-9.43222
மேற்கு	-9.43361
▁இந்தக்	-9.4341
▁வருகிறார்	-9.43423
▁1989	-9.43432
▁தங்க	-9.43584
▁ரோ	-9.43625
ையும்	-9.43706
▁மட்டும்	-9.43726
▁ஏழு	-9.43732
▁உயிர்	-9.43738
னிய	-9.43756
ராஜ்	-9.43769
▁மொழிகள்	-9.43799
▁தொழில்நுட்ப	-9.43828
75	-9.4395
▁கோயம்புத்தூர்	-9.43992
த்தல்	-9.44059
▁அழைக்கப்படும்	-9.44083
99	-9.44125
▁1977	-9.4418
no	-9.44229
▁மார்ச்சு	-9.4431
▁குடும்ப	-9.44518
▁that	-9.44604
▁இவர்கள்	-9.44726
▁ஒலி	-9.44848
▁%	-9.44933
ழி	-9.44962
▁நீ	-9.44963
தமிழக	-9.45006
ிலுள்ள	-9.45035
CH	-9.45063
▁தீவுகள்	-9.45229
▁நகராட்சி	-9.45231
▁பர்	-9.45429
▁சூரிய	-9.45437
▁உத்தரப்	-9.45502
▁கழகம்	-9.45595
வரும்	-9.45653
▁பீகார்	-9.45797
%20	-9.45829
▁கிராமத்தின்	-9.46013
▁செய்யும்	-9.46111
ருக்கு	-9.462
▁மகளிர்	-9.46217
இந்தியாவில்	-9.46234
▁வகைப்பாடு	-9.4632
▁டெ	-9.4638
▁பெப்ரவரி	-9.46494
ாத	-9.46513
▁ஆல்	-9.46594
gov	-9.46611
▁வங்கி	-9.46663
▁முதலாவது	-9.46761
நாட்டுத்	-9.4687
di	-9.4687
▁பிள்ளை	-9.46902
ac	-9.46937
▁used	-9.47119
▁1985	-9.47141
align	-9.47198
க்கை	-9.47228
ானது	-9.47343
த்தையும்	-9.47382
▁an	-9.47514
▁சை	-9.4752
▁பரம்பல்	-9.47553
க்கூடிய	-9.47564
▁வேறு	-9.476
▁புகழ்பெற்ற	-9.47616
▁கல்	-9.4762
ள்ள	-9.47635
▁தேர்வு	-9.47682
▁உபசன்னதிகள	-9.47859
▁விண்மீன்	-9.47877
04	-9.47968
▁இயற்பியல்	-9.48
▁1962	-9.48169
ite	-9.48175
▁33	-9.48455
ir	-9.48533
▁சம	-9.4862
▁text	-9.48651
னும்	-9.48725
▁நாமக்கல்	-9.48743
▁32	-9.4883
▁தான்	-9.48831
▁கண்ட	-9.48841
▁அமெரிக்கா	-9.48856
குளம்	-9.48881
▁தர்மபுரி	-9.49006
▁பஞ்சாப்	-9.49102
▁ஜெ	-9.49166
son	-9.49172
▁உடல்	-9.49226
விட	-9.49235
▁கன்னியாகுமரி	-9.49247
ம்பு	-9.49281
▁பிரதிநிதித்துவ	-9.49467
80	-9.49499
▁இயக்கிய	-9.49509
▁அடங்கும்	-9.49653
▁Retrieved	-9.49681
48	-9.49719
▁||	-9.49835
▁வேலை	-9.49859
▁map	-9.50018
▁நோய்	-9.50018
de	-9.50121
கேரள	-9.50126
▁தமிழில்	-9.50278
▁ஆரம்ப	-9.50306
▁பொருட்கள்	-9.5037
27	-9.50459
▁மஞ்சள்	-9.50526
▁கர்நாடக	-9.50544
▁நாட்கள்	-9.50711
05	-9.50857
”	-9.5088
ரீ	-9.50895
▁நீண்ட	-9.50911
▁m	-9.51046
ப்பள்ளி	-9.51096
▁இப்	-9.51111
▁நடித்துள்ளார்	-9.5114
▁பேரரசு	-9.51148
▁வரலாற்று	-9.51185
▁1994	-9.5121
மதுரை	-9.51296
சையர்	-9.51304
▁இராகம்	-9.51316
ிரிக்கட்	-9.51465
▁மனைவி	-9.51492
▁வலைவாசல்	-9.5158
ணை	-9.51666
▁நகரத்தின்	-9.5167
சம்	-9.51764
ாமல்	-9.5177
▁மண்டல	-9.51835
முறை	-9.51853
▁மும்பை	-9.51862
டெ	-9.51889
▁முக்கியமான	-9.51914
ப்பை	-9.52064
ற்	-9.52068
▁f	-9.52094
▁Na	-9.52105
வல்	-9.52169
▁கண்டுபிடிக்க	-9.52183
▁இதழ்	-9.523
▁மில்லியன்	-9.52345
▁திருவள்ளூர்	-9.52371
▁1995	-9.52397
▁ஜான்	-9.52421
▁இத்திரைப்படத்தி	-9.52602
▁முன்னணி	-9.52637
▁முறையில்	-9.52671
களான	-9.52822
னம்	-9.52898
▁பெர்	-9.52923
31	-9.52951
▁தேதியன்று	-9.52954
ங்களிலும்	-9.53197
பின்	-9.53251
▁Press	-9.53347
▁தொடர்பு	-9.5336
un	-9.53389
▁பாறை	-9.53453
பார்	-9.53456
▁பதிவு	-9.53459
08	-9.53484
மின்	-9.53716
▁சமயம்	-9.53739
▁குறிப்பாக	-9.53783
tamil	-9.53929
#	-9.53933
▁கடற்கரை	-9.5396
▁கொள்ள	-9.53976
02	-9.54068
|250	-9.54112
வில்லை	-9.54115
▁pp	-9.54192
▁தோற்றம்	-9.5423
▁நேர	-9.5443
▁then	-9.545
42	-9.54553
யாகவும்	-9.54576
▁மாகாண	-9.54618
களாகும்	-9.5479
nic	-9.54835
▁விளக்கம்	-9.54867
ப்படுகின்றது	-9.55045
▁சன்னதிகள்	-9.55163
திருவண்ணாமலை	-9.55283
▁மயிலாடுதுறை	-9.55306
▁தெரு	-9.55512
▁யூ	-9.55563
▁நாடுகளின்	-9.55594
க்காடு	-9.55605
▁முனைவர்	-9.55668
கான்	-9.55669
லும்	-9.55694
▁சதுரங்க	-9.55749
னியா	-9.55768
▁அலி	-9.55838
▁கணக்கெடுப்பின்	-9.56045
▁ஜனவரி	-9.56066
▁ஊ	-9.56091
சுவாமி	-9.56116
▁நடிகை	-9.56224
சில்	-9.56277
ate	-9.56281
▁வீதம்	-9.56298
▁பகுதியாக	-9.56332
த்தூர்	-9.56429
பள்ளி	-9.56433
link	-9.56465
▁This	-9.56486
ட்டோ	-9.565
▁நிறத்தில்	-9.56672
▁அவர்கள்	-9.56739
▁வழங்கப்பட்டது	-9.56758
ha	-9.56789
▁எனக்	-9.56805
▁நிதி	-9.56884
▁வெள்ளி	-9.56912
▁யா	-9.56925
▁கருவி	-9.57039
▁எனவே	-9.57053
ni	-9.57094
த்துறை	-9.57197
கூ	-9.57208
▁வகைப்படுத்த	-9.57321
ine	-9.5744
36	-9.57455
▁பிரதேசத்தின்	-9.57535
▁சன்னதியும்	-9.57602
▁இந்துக்	-9.57607
▁45	-9.57645
▁உப்பு	-9.57731
▁அருங்காட்சியக	-9.57761
▁அடிக்குறிப்பு	-9.57783
ro	-9.57878
▁எனப்	-9.57943
ண்ட்	-9.57967
விற்கு	-9.58162
ஐக்கிய	-9.58354
தாகவும்	-9.58615
▁re	-9.58626
▁பெற	-9.5868
லீ	-9.58708
ian	-9.58718
▁பண்பாடு	-9.58745
▁அக	-9.58821
▁விளக்க	-9.58832
ஹ	-9.58832
▁Tamil	-9.58836
வகை	-9.58858
▁உட்பட	-9.58858
▁U	-9.58945
▁வட்ட	-9.58975
▁இடையே	-9.5901
த்தைக்	-9.59018
▁Template	-9.59049
லர்	-9.59086
▁திருப்பூர்	-9.5915
ai	-9.59306
▁தொகுதியின்	-9.59326
▁ராஜா	-9.59351
ti	-9.59413
லால்	-9.59464
▁அமிலம்	-9.59475
▁அருவி	-9.59505
▁An	-9.59527
▁வெளியீடு	-9.59575
ஃப்	-9.59611
▁தாய்	-9.59621
33	-9.59742
▁மிகப்பெரிய	-9.59764
▁சக்தி	-9.59764
ணா	-9.59779
▁இணைய	-9.59825
▁முழுவதும்	-9.59833
▁1984	-9.5985
▁பயன்படுத்தி	-9.59858
களுக்காக	-9.59859
▁அமெரிக்காவின்	-9.59918
▁முன்னர்	-9.59994
▁மாகாணத்தின்	-9.60116
▁வேளாண்மை	-9.6013
52	-9.60132
ka	-9.6036
▁நாகப்பட்டினம்	-9.60377
09	-9.60396
ங்குடி	-9.60416
▁வாழும்	-9.60538
▁பயன்படுகிறது	-9.60598
▁உரிமை	-9.60637
▁வந்தது	-9.6066
ங்களையும்	-9.60675
▁rowspan	-9.60772
கொ	-9.60772
▁லி	-9.60888
▁சிவப்பு	-9.60892
▁தாவரங்கள்	-9.60915
பீ	-9.60962
▁ஆண்ட	-9.60965
▁ராஜ்	-9.61011
▁போன்றவை	-9.61026
ers	-9.6107
▁are	-9.61084
வெ	-9.61088
வார்	-9.61301
▁நீல	-9.61402
▁it	-9.61432
▁முழு	-9.61557
▁34	-9.61592
▁சென்று	-9.61713
க்குப்	-9.61782
▁1972	-9.61795
▁இக்	-9.61852
ினார்	-9.6188
100	-9.61971
▁மக	-9.62016
பேட்டை	-9.62031
▁அகில	-9.62112
=2	-9.62139
▁சிறீ	-9.62142
▁நெடுஞ்சாலைகள்	-9.62231
▁Wikidata	-9.62283
▁2011-	-9.62288
▁நிறுவப்பட்ட	-9.62373
ிருந்த	-9.6239
▁இடங்களில்	-9.62494
▁இடம்பெற்ற	-9.62496
▁பங்கு	-9.62513
▁நிறுவன	-9.62521
▁ராஜ	-9.62662
லம்	-9.6274
ாகவும்	-9.62894
▁இணையதளம்	-9.62963
ரால்	-9.63021
▁அசாம்	-9.63032
▁என்பதை	-9.63084
▁திண்டுக்கல்	-9.63133
▁பிரிவில்	-9.63142
▁World	-9.63273
▁விடுதலை	-9.63282
பொ	-9.63284
▁மொ	-9.63389
▁கள	-9.63394
▁கட்டமைப்பு	-9.63395
▁புவி	-9.63553
ak	-9.63569
▁அதே	-9.63655
▁அழைக்க	-9.63666
▁/	-9.63701
பால்	-9.63748
பெ	-9.63845
▁உலோக	-9.63883
▁அணு	-9.63922
▁கருநாடக	-9.63965
▁ஆங்கிலம்	-9.63997
▁சித்திரை	-9.64054
▁கண்	-9.64079
▁நோ	-9.64102
▁அருகிலுள்ள	-9.64142
▁அங்கு	-9.64252
▁சுற்றி	-9.64266
சேலம்	-9.6428
▁36	-9.64285
வுக்கு	-9.64315
ினை	-9.64425
▁1983	-9.64425
▁மாகாணம்	-9.64504
▁என்பவரால்	-9.64505
▁மையம்	-9.64624
▁Population	-9.64701
96	-9.64741
▁நிறுவனத்தின்	-9.64801
▁Election	-9.64862
▁article	-9.64895
▁காண	-9.64916
▁எட்டு	-9.64959
▁சார்பில்	-9.64985
ut	-9.64996
ராவ்	-9.65041
▁சொல்ல	-9.6506
▁பல்	-9.65104
35	-9.6515
▁மை	-9.65165
த்தினை	-9.65201
▁வலது	-9.65222
▁ஷா	-9.65503
மர்	-9.65515
ச்சா	-9.65538
▁1971	-9.65617
ஞ்ச	-9.65636
43	-9.65671
விழுப்புரம்	-9.65674
ப்பூர்	-9.65734
81	-9.65807
மகாராட்டிர	-9.65821
▁தொடர்புடைய	-9.6585
text	-9.65998
▁எழுதி	-9.65999
▁காலப்	-9.66041
pur	-9.6607
மெ	-9.6609
▁சீன	-9.66118
▁இம்	-9.66225
யான்	-9.66226
▁37	-9.66372
▁ஜன்னி	-9.66439
▁ரெட்டி	-9.66486
னுக்கு	-9.66556
▁History	-9.66568
▁ல்	-9.66577
ல்லா	-9.66591
▁மறு	-9.66645
ங்களைக்	-9.66654
▁வருகின்றன	-9.66684
▁சென்னையில்	-9.66784
▁சர்வதேச	-9.66813
india	-9.66846
ரெ	-9.66878
கார்	-9.6688
▁வாய்ப்பாடு	-9.66923
pdf	-9.66926
▁பதி	-9.67179
▁காட்டு	-9.67264
41	-9.67294
▁1997	-9.67355
்ட்	-9.67399
77	-9.67541
▁1978	-9.67557
ிருந்தார்	-9.67621
▁விஜய்	-9.67622
▁பக்க	-9.67627
-1	-9.67644
▁கல்லூரிகள்	-9.67899
▁[[	-9.67904
▁1000	-9.67945
▁1957	-9.67982
ியது	-9.68016
▁பச்சை	-9.68052
45	-9.68151
▁பஞ்ச	-9.68168
▁வகையான	-9.68194
▁புகழ்	-9.68219
▁கிரேக்க	-9.68293
▁எதிராக	-9.68326
46	-9.68329
▁இசு	-9.6834
2)	-9.6851
▁புலவர்	-9.68579
▁பருவ	-9.68597
the	-9.68712
திரைப்படம்	-9.68735
▁சர்	-9.68794
லியா	-9.688
▁https	-9.68808
im	-9.6882
▁()	-9.68825
▁மாணவர்கள்	-9.68835
ஷா	-9.68958
▁1993	-9.68997
ium	-9.69015
▁n	-9.69046
▁வாழ்ந்த	-9.69141
▁ஒன்றாக	-9.69193
னில்	-9.69218
hi	-9.69231
▁இத்தொகுதியானது	-9.69331
▁தேவை	-9.69343
▁நதி	-9.69467
▁பர	-9.69475
▁அறியப்படுகிறது	-9.69495
▁ஆணையம்	-9.69553
▁கோபுரம்	-9.6962
▁கரூர்	-9.69723
▁மாசி	-9.69742
▁கார	-9.69896
▁De	-9.69898
ூ	-9.699
யியல்	-9.69908
AF	-9.70077
▁நாட்டில்	-9.70154
▁முக	-9.70199
ராம்	-9.70247
▁இதுவும்	-9.7032
▁குடும்பம்	-9.70506
▁பண்புகள்	-9.7064
ஓ	-9.70734
▁வெளியிடப்பட்டது	-9.70739
▁உயிரி	-9.70767
▁நோக்கி	-9.70814
▁திட்ட	-9.70864
▁இடையில்	-9.70917
டம்	-9.7104
▁மைய	-9.71081
ஸ்ட்	-9.71191
▁வழங்க	-9.71192
color	-9.71196
ரன்	-9.71329
ுகின்றன	-9.71422
டைய	-9.71469
▁கருப்பு	-9.71506
ங்களாக	-9.71536
▁தன்மை	-9.71559
▁எழுதியுள்ளார்	-9.71579
▁விருதுநகர்	-9.71636
▁ல	-9.71683
வுடன்	-9.71946
▁பிரிவுகள்	-9.71997
▁இர	-9.72003
▁முத்து	-9.72129
▁டா	-9.72162
உத்தரப்	-9.72164
▁பாதை	-9.72398
யல்	-9.72411
▁இலக்கியம்	-9.72417
▁குடும்பத்தைச்	-9.7254
தீ	-9.72547
▁1982	-9.72606
▁இறந்தார்	-9.72753
▁மேலாண்மை	-9.72808
▁வட்டத்தின்	-9.72811
▁இடை	-9.72845
▁திருமணம்	-9.72845
பாரதிய	-9.7298
▁பத்து	-9.73131
▁‘	-9.73155
tion	-9.7318
▁செய்தார்	-9.73183
ary	-9.73209
▁தருமபுரி	-9.73225
▁இங்குள்ள	-9.7329
ve	-9.733
த்தார்	-9.73321
expr	-9.73348
கடலூர்	-9.73424
இலங்கையின்	-9.73529
Coordinates	-9.73676
▁சுயேச்சை	-9.73712
▁மூ	-9.73754
▁குறியீடு	-9.73767
▁ஹா	-9.73829
▁உறுப்பினராகத்	-9.73911
se	-9.73924
▁எந்த	-9.73927
ாலும்	-9.73945
▁ஒலிம்பிக்	-9.73967
▁மத்தியப்	-9.74045
Br	-9.74121
▁மாகாணத்தில்	-9.74277
▁சபை	-9.7437
▁அதிகம்	-9.74403
39	-9.74441
▁கள்ளக்குறிச்சி	-9.74489
யைச்	-9.74556
os	-9.74609
▁விதி	-9.74734
▁Official	-9.74791
lo	-9.74823
வார்ப்புரு	-9.7486
மட்டத்திலிருந்து	-9.74902
▁ஐரோப்பிய	-9.75001
▁குறித்து	-9.75007
▁உலகப்	-9.75013
▁கிருஷ்ண	-9.75017
▁புரட்டாசி	-9.75035
▁மாலை	-9.75095
▁இசுலாமிய	-9.75117
ியல்	-9.75153
▁சங்கத்தின்	-9.75175
ரூ	-9.75177
ிறது	-9.75267
sa	-9.75424
▁National	-9.75536
▁சைவ	-9.75585
▁மன	-9.75595
▁ஜூன்	-9.75603
▁நினைவாக	-9.75657
ஹி	-9.75748
▁கூட	-9.75759
▁கணக்கெடுப்பு	-9.75764
▁புள்ளி	-9.75796
ுவதற்கு	-9.75829
▁பொருளாதார	-9.75915
▁ஜோ	-9.75967
▁காசி	-9.7599
ist	-9.76
▁அருங்காட்சியகம்	-9.76155
▁நிலைய	-9.76171
▁கட	-9.76178
▁திருவாரூர்	-9.76238
X	-9.76246
▁ஆகவும்	-9.76283
▁பௌத்த	-9.76379
34	-9.76404
▁விண்வெளி	-9.76405
▁பங்குனி	-9.76464
▁லெ	-9.76496
▁அமில	-9.76618
47	-9.76634
▁b	-9.76676
நல்லூர்	-9.76739
▁எல்லை	-9.76742
▁பிரெஞ்சு	-9.76806
72	-9.7688
data	-9.76901
90	-9.76923
▁ட	-9.76958
▁இக்கல்லூரி	-9.77039
▁கலைஞர்	-9.77066
▁இந்தியாவைச்	-9.77067
▁சீனா	-9.77114
வான	-9.77114
▁e	-9.77137
▁சுத்த	-9.77158
▁பயன்படும்	-9.7717
▁கட்டப்பட்டது	-9.77217
▁90	-9.77256
▁காமிகாகம	-9.77396
79	-9.77551
க்ஸ்	-9.77576
சிய	-9.77605
களைத்	-9.7762
▁தொல்லியல்	-9.7771
▁அறிவியலாளர்கள்	-9.77715
▁1960	-9.77798
▁வைத்து	-9.77848
44	-9.77883
▁43	-9.78103
▁அலகு	-9.78111
▁தென்னாப்பிரிக்க	-9.782
மேடு	-9.78207
▁உடைய	-9.78215
▁மாணவர்	-9.78216
▁வான்	-9.78308
▁துறையில்	-9.78319
▁பயன்பாடு	-9.78359
▁ஆகியவற்றை	-9.78387
▁பெரம்பலூர்	-9.7843
▁தனியார்	-9.78573
▁தலங்கள்	-9.78706
கிருஷ்ணகிரி	-9.7879
▁வந்து	-9.78808
▁38	-9.78829
▁Summary	-9.78891
▁ராம	-9.78907
▁ஏற்படும்	-9.78922
▁அரி	-9.79047
▁உடன்	-9.79048
க்கப்பட்ட	-9.79063
pa	-9.79119
ுக்கான	-9.7913
▁ஜெய	-9.79137
▁நேரம்	-9.7918
▁போல்	-9.7922
▁ஐயனார்	-9.79397
91	-9.79516
▁சிகிச்சை	-9.79604
▁மூன்றாவது	-9.79621
▁சிற்றினம்	-9.79641
▁இந்தி	-9.79759
தமிழர்	-9.79782
▁200	-9.79788
▁சந்திப்பு	-9.79809
▁கொடி	-9.79818
▁வயதில்	-9.79818
▁தை	-9.79872
▁ஏற்பட்ட	-9.79912
ana	-9.79916
த்திய	-9.79972
▁சார்	-9.79986
▁அறிய	-9.79986
▁“	-9.80012
▁கால்	-9.80018
லெ	-9.80055
திருநெல்வேலி	-9.80242
▁சோதனை	-9.80428
59	-9.80441
திரு	-9.80464
▁சுற்றுலா	-9.80486
▁ஜூலை	-9.80606
ினால்	-9.80665
ட்ஸ்	-9.80696
தமிழ்நாட்டு	-9.807
▁District	-9.80737
த்தைப்	-9.80747
▁மைல்	-9.80779
▁கூட்டு	-9.80786
▁புல	-9.8084
வன	-9.80873
61	-9.80931
ent	-9.80964
▁அதற்கு	-9.80994
▁ராவ்	-9.81048
▁இளங்கலை	-9.81054
▁சுதந்திர	-9.81091
▁இறுதி	-9.81102
▁ஆற்றல்	-9.81128
சல்	-9.81148
ணு	-9.81163
71	-9.81186
ுவது	-9.81277
▁48	-9.8132
ங்கோ	-9.81377
▁ஒத்த	-9.81442
▁1992	-9.81497
▁எழுத்து	-9.81658
▁இராமநாதபுரம்	-9.81791
க்கரை	-9.81813
ாவின்	-9.8182
▁உரு	-9.81823
ant	-9.819
▁44	-9.8191
டின்	-9.81946
1977	-9.81976
யினை	-9.82075
▁பரவலாக	-9.82079
ளா	-9.82128
▁கிமு	-9.82201
▁எல்லா	-9.82228
ment	-9.82244
▁அக்	-9.82256
▁1987	-9.82282
▁இராம	-9.82283
▁சாதாரண	-9.82298
ைப்	-9.82317
▁முனை	-9.82354
கர்நாடக	-9.82422
▁திரைப்படங்களில்	-9.82723
▁மரபு	-9.82777
குமார்	-9.82816
ோடு	-9.82823
56	-9.8283
51	-9.82885
▁மேனாள்	-9.82906
▁நூற்றாண்டின்	-9.8292
▁திறன்	-9.82933
63	-9.82951
:17	-9.82952
மாகவும்	-9.82965
▁தகுதி	-9.82982
▁சன்னதிகளும்	-9.82985
▁கல	-9.82995
▁பெரும்பாலான	-9.83013
▁போட்டிகள்	-9.83077
▁அடர்த்தி	-9.8318
▁சேர்மம்	-9.83228
93	-9.83255
ம்பா	-9.83266
▁link	-9.83292
▁உயரம்	-9.83354
▁வேட்பாளராக	-9.83369
தெலுங்கு	-9.83482
▁வில்லியம்	-9.83519
▁அமைச்சராக	-9.83618
▁வெப்பநிலையில்	-9.83705
யைத்	-9.83736
▁உறுப்பினராகவும்	-9.83776
▁கரை	-9.83777
வாடி	-9.83829
▁பள்ளியில்	-9.83873
▁பதிப்பகம்	-9.83895
▁குல	-9.83934
▁ஆப்	-9.83956
ப்படி	-9.8396
▁தல	-9.84036
▁எழுத	-9.84089
▁1970	-9.84154
▁மீற்றர்	-9.84276
கலை	-9.84324
▁கன	-9.84369
▁வென்ற	-9.84375
▁உருவாகும்	-9.84406
▁மண்டலம்	-9.84407
95	-9.84413
▁பிரதேசத்தில்	-9.84428
▁இனங்கள்	-9.84437
ஒ	-9.84481
▁ஆகஸ்ட்	-9.84487
▁class	-9.84552
▁left	-9.84553
▁மட	-9.84606
கால	-9.84616
▁விருதை	-9.84838
▁எண்ண	-9.849
▁குடியரசு	-9.84952
2%	-9.84962
த்தான்	-9.84969
▁Co	-9.84984
ரசு	-9.85017
▁படிக	-9.85055
▁மலேசிய	-9.85067
வீ	-9.85093
▁தொடங்கப்பட்டது	-9.85254
▁color	-9.85271
புதுக்கோட்டை	-9.8528
▁இருக்கிறது	-9.85309
▁தடை	-9.85339
▁அரியலூர்	-9.85446
▁தலைவராகவும்	-9.85459
▁Al	-9.85485
▁டோ	-9.85546
ம்ப	-9.85628
svg	-9.85639
ட்டர்	-9.85676
▁வல்ல	-9.85699
▁80	-9.85742
')	-9.85791
ீ	-9.85848
சிங்	-9.85854
▁மாநகராட்சி	-9.8591
▁குறு	-9.86018
▁args	-9.86023
ity	-9.86042
▁கிரி	-9.8605
▁வேட்பாளர்	-9.86059
▁49	-9.86063
ப்பகுதி	-9.86132
▁மற்றொரு	-9.86154
▁வெப்பமண்டல	-9.86184
▁அனு	-9.86198
▁39	-9.8622
▁கவிதை	-9.86338
மூ	-9.8637
▁கொள்கை	-9.86407
▁செல்வ	-9.86422
▁பொதுத்	-9.86488
▁இவ்வ	-9.86495
சட்டமன்றத்திற்கு	-9.86599
▁இத்திரைப்படம்	-9.8674
▁La	-9.86756
php	-9.86913
▁வார	-9.86929
▁அர்	-9.86949
▁தொடங்கினார்	-9.87008
net	-9.87017
▁காட்ட	-9.87091
▁இலை	-9.87094
▁ஆரணி	-9.87095
▁தள	-9.87133
▁இப்பகுதி	-9.87159
▁கட்டி	-9.87172
டீ	-9.87173
57	-9.87179
IV	-9.87308
▁அமைந்துள்ளன	-9.87375
▁பாலி	-9.87379
▁புத்தக	-9.87414
▁இன்று	-9.87429
▁கூட்ட	-9.87445
94	-9.8774
▁அர	-9.87756
சூ	-9.8782
தர்மபுரி	-9.87849
▁வளைய	-9.87872
▁அனைத்திந்திய	-9.87893
▁காவல்	-9.87922
('	-9.87935
:#	-9.8794
▁இனம்	-9.87959
வெளி	-9.87966
▁பாக்கித்தான்	-9.88051
▁நடை	-9.8809
▁தங்கள்	-9.88184
கெ	-9.88193
▁வரி	-9.88227
▁தொ	-9.88236
விலிருந்து	-9.88334
▁லோ	-9.8835
va	-9.88353
▁கட்டப்பட்ட	-9.88382
▁செயல்	-9.88383
▁சாலையில்	-9.88387
54	-9.88461
வினை	-9.88464
▁சிதம்பரம்	-9.88526
▁எரி	-9.88603
பட	-9.88637
▁லால்	-9.88749
▁அதிகமாக	-9.88807
▁வசதி	-9.88851
வதி	-9.88873
▁சோடியம்	-9.88878
▁உள்ளூர்	-9.88879
▁County	-9.89009
▁மூத்த	-9.89018
போர்	-9.89083
▁function	-9.89227
▁இவ்	-9.89274
▁அதை	-9.89306
உருவாக்கப்பட்டது	-9.89313
ுள்ளனர்	-9.89422
args	-9.8951
▁இவரை	-9.89525
ன்ஸ்	-9.89585
▁அரண்மனை	-9.89629
▁To	-9.8964
▁ஈர	-9.89656
பர	-9.89717
ேந்திர	-9.89732
ந்தை	-9.8974
▁இருக்க	-9.89765
▁ஒன்றான	-9.89801
▁மருத்துவம்	-9.89838
ப்போ	-9.89879
▁கோடி	-9.89924
▁நடக்கின்றன	-9.89943
▁சேர்	-9.89964
தும்	-9.89987
▁விடுதலைப்	-9.90067
▁விலங்கு	-9.90162
யெ	-9.90167
ம்பாளையம்	-9.90175
me	-9.9018
▁°	-9.90209
▁அமெரிக்காவில்	-9.90213
98	-9.9022
68	-9.9031
▁புலி	-9.90323
▁சிலை	-9.90337
▁ஆக்சைடு	-9.90474
▁ரெ	-9.90506
▁கொண்டாட	-9.90507
▁கர்	-9.90603
▁இளம்	-9.90614
▁எடை	-9.9064
▁யாழ்ப்பாண	-9.90737
▁கவிஞர்	-9.90755
*	-9.90868
38	-9.90869
வரம்	-9.90877
படம்	-9.90898
அமெரிக்கத்	-9.909
▁யானை	-9.90953
மயிலாடுதுறை	-9.9106
▁சட்டமன்றத்தில்	-9.91086
:16	-9.91181
ive	-9.91188
டியா	-9.91223
▁ஒன்றியத்தின்	-9.91226
▁மார்	-9.91231
▁குறி	-9.91232
ைச்	-9.91241
▁காதல்	-9.91339
▁கொண்டார்	-9.91406
▁வழங்கும்	-9.91492
▁இந்தத்	-9.9151
▁குறிக்கிறது	-9.91542
▁42	-9.91634
ah	-9.91658
▁v	-9.91662
▁அலை	-9.91723
92	-9.91754
▁வெள்ள	-9.91886
mp	-9.91915
▁Y	-9.91935
▁முடிவு	-9.91982
▁75	-9.91996
ru	-9.92014
பல்	-9.9212
▁46	-9.92139
69	-9.92162
▁ராய்	-9.92196
▁சோழ	-9.92202
▁மலர்	-9.92207
க்கோட்டை	-9.92233
▁ஆண்களுக்கு	-9.92249
▁ரயில்	-9.92265
▁பொதுவான	-9.92414
▁வால்	-9.92441
▁சங்கர்	-9.92507
uk	-9.92573
▁திரைப்படத்தில்	-9.92604
||	-9.92695
▁தூ	-9.92786
▁Z	-9.92819
ce	-9.92856
ணம்	-9.92906
é	-9.92907
yl	-9.92907
பெண்	-9.92967
▁இயக்கம்	-9.92969
▁செல்கிறது	-9.92977
▁எடுத்துக்காட்டு	-9.9303
▁மாநிலத்	-9.9304
னெ	-9.93062
▁வடக்கே	-9.9309
▁47	-9.93142
tr	-9.9316
▁ஊரானது	-9.93173
▁நவீன	-9.93206
87	-9.93223
|300	-9.93273
style	-9.93296
ராய்	-9.93374
▁போரில்	-9.93411
▁இருந்தனர்	-9.93431
▁கதிர்	-9.9345
▁Ka	-9.93456
go	-9.93468
புதூர்	-9.93495
85	-9.93558
▁நினைவு	-9.93565
▁அறிமுகப்படுத்த	-9.93597
center	-9.93603
▁இராணுவ	-9.93638
▁கலைஞர்கள்	-9.9364
▁மாதத்தில்	-9.93657
▁label	-9.9366
▁உலகின	-9.93668
▁பக்	-9.93675
q	-9.93733
▁t	-9.9378
த்திலுள்ள	-9.93799
70	-9.9384
|200	-9.93854
ுகின்றனர்	-9.93913
86	-9.93962
all	-9.93986
▁அயனி	-9.9402
ong	-9.94051
ாளர்	-9.94083
▁can	-9.94101
age	-9.94194
▁எச்	-9.94201
▁திரைக்கதை	-9.94236
▁templates	-9.94379
▁கண்ண	-9.94445
முக	-9.94473
ton	-9.94477
▁மழை	-9.9452
▁போராட்ட	-9.94547
OH	-9.94564
nd	-9.94653
NO	-9.94658
alt	-9.94692
யம்மன்	-9.94733
▁அடுத்து	-9.94734
ja	-9.94743
▁வானொலி	-9.94818
▁no	-9.94863
▁பயனர்	-9.94932
பால	-9.95049
ஷ	-9.95121
▁இந்திரா	-9.95124
op	-9.9523
ப்பாளையம்	-9.95334
▁குளோரைடு	-9.95344
▁Indian	-9.95375
இலங்கைத்	-9.95396
▁ஆகவுள்ளனர்	-9.95406
கர	-9.95406
▁முறையே	-9.95515
▁பிரசாத்	-9.95565
▁திரி	-9.9558
யின	-9.95597
▁நன்கு	-9.95614
▁சிற்றினமாகும்	-9.95629
55	-9.95638
த்திர	-9.95641
▁பின்வரும்	-9.95728
▁தவிர	-9.95821
க்கம்	-9.95825
▁காடு	-9.95911
இந்தியா	-9.9592
78	-9.95928
▁70	-9.95928
▁மோகன்	-9.95995
▁உயர்ந்த	-9.96044
ந்	-9.96109
▁கருத்து	-9.9617
▁லட்சுமி	-9.96226
▁கூறப்படுகிறது	-9.96266
ண்ண	-9.96308
▁தொடங்கி	-9.96372
65	-9.96387
ஆந்திரப்	-9.96476
▁எண்ணெய்	-9.96501
ப்பர்	-9.96511
▁மிகப்	-9.96545
▁திமுக	-9.96589
பட்ட	-9.96592
▁வெப்பநிலை	-9.9666
▁அதிகாரப்பூர்வ	-9.96666
▁கண	-9.96708
▁d	-9.96892
▁X	-9.97005
ஷி	-9.97032
▁வெளியிடப்பட்ட	-9.97036
73	-9.97039
▁தமிழ்ப்	-9.97085
பகுதி	-9.97117
-19	-9.97144
▁வன	-9.97277
▁மண	-9.9729
▁இரும்பு	-9.97297
▁!	-9.97306
ட்சு	-9.97338
▁கட்டிடக்கலை	-9.97396
தென்	-9.97414
3)	-9.97415
▁வென்றார்	-9.97435
66	-9.9745
ba	-9.97455
ung	-9.97485
▁Licensing	-9.975
kar	-9.97531
நாத்	-9.97632
line	-9.97694
▁52	-9.97704
88	-9.97788
▁செயல்படுகிறது	-9.9781
▁இடங்கள்	-9.9788
83	-9.97996
▁இல்லாத	-9.98014
▁நவ	-9.98043
▁செல்	-9.98072
▁உசாத்துணைகள்	-9.98145
ுகிறார்	-9.98212
க்குள்	-9.98229
2014	-9.9825
▁பழ	-9.98253
62	-9.9834
58	-9.98342
▁இதுவே	-9.98403
▁மாதிரி	-9.98409
▁திரைப்படத்	-9.9843
மர	-9.98526
நீர்	-9.98539
land	-9.98595
▁இறந்த	-9.98615
பிரித்தானிய	-9.98637
da	-9.98702
ும்போது	-9.98813
list	-9.9896
ந்தர்	-9.98969
▁அடை	-9.98979
▁புதுச்சேரி	-9.9901
▁வட்டங்கள்	-9.99023
Z	-9.99038
▁எசு	-9.99088
ரான்	-9.99099
▁Le	-9.99126
▁தேனி	-9.99173
▁வழங்கி	-9.99218
▁அரிய	-9.99224
▁பேரவை	-9.99234
ell	-9.99245
▁அடிப்படையாகக்	-9.9928
▁எனினும்	-9.9933
நூல்	-9.99333
▁பிரபலமான	-9.99338
▁செய்யப்பட்டது	-9.9934
▁சந்தை	-9.99365
▁வீ	-9.99458
74	-9.99535
▁Ba	-9.99535
ப்பட்டன	-9.99563
ழு	-9.99605
▁இல	-9.99627
▁அரபு	-9.99673
ஈரோடு	-9.9968
ie	-9.99734
▁41	-9.99833
▁also	-9.99847
▁தெற்கே	-9.99847
▁வட்டார	-9.99886
மார்	-9.99906
▁சிற்றினங்கள்	-9.99982
▁வெளியானது	-9.99984
97	-9.99988
▁border	-10.0004
:15	-10.0006
:21-	-10.0007
கள	-10.0007
Re	-10.0009
lu	-10.0011
▁அரிசி	-10.0013
▁வது	-10.0015
▁டே	-10.0017
▁அரை	-10.0018
▁do	-10.0018
வராக	-10.0019
▁காடுகள்	-10.0025
▁வேத	-10.0028
▁பேர	-10.0035
mb	-10.0039
▁கீழே	-10.0042
▁இத்	-10.005
இன்	-10.0054
ry	-10.0065
▁1986	-10.0068
per	-10.0069
▁ஞான	-10.007
▁ஆனந்த	-10.0076
▁அதாவது	-10.0077
▁பெற்றுள்ளது	-10.008
ப்பின்	-10.0087
▁கர	-10.0088
▁வண்ண	-10.0089
பெயர்	-10.0092
▁Br	-10.0095
▁கோள்	-10.0103
ிருந்தது	-10.0105
tra	-10.0112
▁பெண்களும்	-10.0121
▁பழங்குடி	-10.0122
▁சம்மு	-10.0124
▁வாழ்கின்றனர்	-10.0125
ம்பி	-10.0129
-2	-10.0133
▁அமைச்சர்	-10.0134
▁பனி	-10.0141
▁பழுப்பு	-10.0149
லன்	-10.015
▁யாதவ்	-10.0156
▁Wikipedia	-10.0165
▁குடி	-10.0166
▁செயல்பாடு	-10.0176
▁மண்	-10.018
Q	-10.018
▁வந்தார்	-10.0184
▁சென்ற	-10.0187
▁படிக்க	-10.0187
▁வயது	-10.0188
▁you	-10.0192
▁Singh	-10.0193
▁விக்கி	-10.0193
▁குடியிருப்பு	-10.0198
▁1952	-10.02
▁யு	-10.0201
தென்னாபிரிக்க	-10.0205
▁Bo	-10.0206
▁ஆசியா	-10.0206
▁நிகழ்ச்சி	-10.0211
wa	-10.0222
▁முகமது	-10.0227
▁நகரின்	-10.023
▁சிங்கப்பூர்	-10.023
be	-10.0233
க்குளம்	-10.0239
கார	-10.0241
▁top	-10.0251
சட்டமன்றத்	-10.0255
வூர்	-10.0263
▁விட்டு	-10.0266
ரில்	-10.0268
ங்களுடன்	-10.0277
est	-10.0279
49	-10.0279
ஃ	-10.0282
▁புரோ	-10.0291
த்தே	-10.0297
▁ஹி	-10.0298
ide	-10.0303
விய	-10.0303
Al	-10.0308
▁கத்தோலிக்க	-10.031
ay	-10.0313
▁உயிரியல்	-10.0318
▁54	-10.0319
▁ஏற்ற	-10.032
நாதர்	-10.032
▁தொகுப்புக்	-10.032
▁குடும்பங்கள்	-10.0322
▁மருத்துவமனை	-10.0325
▁சார்பாக	-10.0329
▁கல்வெட்டு	-10.033
▁கீ	-10.033
த்தோ	-10.0332
▁பிரதி	-10.0338
▁1981	-10.0338
▁அடுத்த	-10.0341
▁55	-10.0351
▁விளையாட்டுகள்	-10.0352
▁டாக்டர்	-10.0353
▁அறியப்படுகிறார்	-10.0353
▁மறை	-10.036
82	-10.0361
▁இவன்	-10.0361
▁உருவ	-10.0367
ம்மா	-10.0369
▁இரட்டை	-10.0374
▁முயற்சி	-10.0377
தொ	-10.038
லிய	-10.0381
▁பெற்றுள்ளார்	-10.0393
ance	-10.0394
▁சான்	-10.0394
▁Commission	-10.0395
▁அச்ச	-10.0399
▁For	-10.04
▁St	-10.0405
▁Sa	-10.0408
▁இராச்சியம்	-10.0417
மதி	-10.0419
பிர	-10.0424
▁கணேஷ்	-10.0428
▁கட்சியைச்	-10.0433
▁நகைச்சுவை	-10.0435
▁சட்டமன்றம்	-10.0446
CO	-10.045
▁பதக்கம்	-10.046
▁வடகிழக்கு	-10.0462
ा	-10.0471
▁தர்ம	-10.0472
▁கணேசன்	-10.0475
▁சேர்ந்தார்	-10.0476
▁ஆஞ்சநேயர்	-10.0486
▁பாடிய	-10.049
▁பிரா	-10.0491
mi	-10.0498
கரிம	-10.05
வயல்	-10.0502
குப்பம்	-10.0505
▁சண்டை	-10.0511
தூத்துக்குடி	-10.0516
▁நடைபெறும்	-10.052
▁லூ	-10.052
ga	-10.0522
▁காசுமீர்	-10.0522
▁உபசன்னதியும்	-10.0525
om	-10.0529
▁ஆண்களும்	-10.0531
ிட	-10.0535
▁சேர்க்க	-10.0536
pt	-10.0538
னாக	-10.0541
▁நடத்த	-10.0541
64	-10.0548
pi	-10.0551
▁தரவு	-10.0552
▁நே	-10.0552
▁ஊர்கள்	-10.0554
கின்	-10.0557
▁வண்டி	-10.0559
htm	-10.0566
▁பேராசிரியர்	-10.0566
க்சு	-10.0571
ின	-10.0574
புரி	-10.0576
திருவாரூர்	-10.0583
▁நேபாள	-10.0586
த்திற்காக	-10.0588
கட	-10.0589
▁ஏறத்தாழ	-10.059
▁வட்டத்துக்கு	-10.0593
▁பாபு	-10.0593
▁திரிபுரா	-10.0595
▁2025	-10.0596
ik	-10.0601
ரான	-10.0605
mo	-10.0609
subst	-10.0613
▁அதிகாரி	-10.0617
▁குளம்	-10.0624
▁கணித	-10.0636
1),	-10.0637
▁இவற்றின்	-10.0638
▁ஒற்றை	-10.0644
ாபுரம்	-10.0654
சங்க	-10.0658
']	-10.067
▁சித்த	-10.0671
title	-10.0673
▁ஆண்டுகளுக்கு	-10.0673
ram	-10.0676
▁நந்தி	-10.0677
▁சௌ	-10.0677
▁ஒடிசா	-10.0678
2),	-10.0678
▁பெயராலும்	-10.0679
▁மான்	-10.0679
▁வடக்கில்	-10.0682
▁வரைபடம்	-10.0683
கோயம்புத்தூர்	-10.0684
▁பத்திரிகை	-10.0684
▁நேரத்தில்	-10.0685
▁முதன்	-10.0687
▁பாலம்	-10.0691
▁வான	-10.0696
2-	-10.0696
▁கருவிகள்	-10.0697
▁பிரதான	-10.0698
▁ரவி	-10.07
▁இதே	-10.0701
டல்	-10.0702
▁நடவடிக்கை	-10.0705
▁Me	-10.0711
▁உயரமான	-10.0716
▁இடது	-10.0719
▁150	-10.0725
vi	-10.0725
▁No	-10.0726
▁திசை	-10.0729
ஹ்	-10.073
▁நேர்	-10.0731
▁மென்பொருள்	-10.0732
▁அப்	-10.0742
விளை	-10.0742
▁அஞ்சல்	-10.0743
▁குறை	-10.0746
▁g	-10.0756
▁மாவட்டங்களில்	-10.0776
ன்சு	-10.0781
▁தேசம்	-10.0785
▁முடி	-10.0787
▁சொ	-10.0789
▁வடிவில்	-10.0791
தாகக்	-10.08
▁வானியல்	-10.0804
கீ	-10.0805
▁தொடக்கம்	-10.0815
நாமக்கல்	-10.0819
▁Con	-10.0823
▁66	-10.0825
▁x	-10.0826
▁சுரங்கள்	-10.0828
▁1988	-10.0831
றா	-10.0846
▁கொழும்பு	-10.0848
▁56	-10.0852
▁மலையாள	-10.0852
யிலுள்ள	-10.0857
▁பழமையான	-10.0861
▁Be	-10.0878
ாய்	-10.0887
▁கொல்ல	-10.0888
▁1951	-10.0892
▁வடிவம்	-10.0895
▁கனிமம்	-10.0904
▁முஸ்லிம்	-10.0909
தின்	-10.0909
▁...	-10.0913
▁53	-10.0915
▁வகுப்பு	-10.0926
▁ஹெ	-10.0933
▁குண	-10.094
▁அலுவலர்	-10.0949
53	-10.095
▁அவர்களின்	-10.0952
▁அப்துல்	-10.0953
▁ஜார்ஜ்	-10.0959
article	-10.0965
▁எழுதப்பட்ட	-10.097
▁அறிமுகமானார்	-10.0971
du	-10.0973
▁இரத்த	-10.0975
▁குதிரை	-10.0977
▁Ra	-10.0979
▁கருத	-10.098
▁கண்டி	-10.0981
▁தனிப்பட்ட	-10.0986
▁மதிப்பு	-10.0996
மீன்	-10.1007
▁கரையில்	-10.1009
▁முதன்முதலில்	-10.1016
▁300	-10.1018
▁புறநகர்ப்	-10.1019
ப்படவில்லை	-10.102
▁பெயரை	-10.1021
ாது	-10.1029
ko	-10.1032
▁நெடு	-10.1032
ாவில்	-10.1032
▁மக்கட்தொகை	-10.1039
▁51	-10.1044
▁அதனை	-10.1056
ci	-10.1058
ிக்	-10.106
தமது	-10.1062
ப்பன்	-10.1067
▁ரே	-10.1068
▁மார்கழி	-10.1073
மம்	-10.1075
ism	-10.1078
இருபதாம	-10.1085
களிலிருந்து	-10.1091
▁list	-10.1093
▁கடைசி	-10.1104
ுக்கும்	-10.1105
▁இணைக்கும்	-10.1108
▁சொந்த	-10.1112
67	-10.1112
▁வடிவமைப்பு	-10.1114
▁தேசியப்	-10.1117
▁ஆன	-10.1121
பாடு	-10.1126
▁அன்	-10.1127
▁மருத்துவக்	-10.1128
▁வீடுகள்	-10.113
▁அலுவலகம்	-10.1133
UTC	-10.1133
▁நடைபெற்றது	-10.1134
தலை	-10.1135
வந்த	-10.1141
ச்சேரி	-10.1142
நாத	-10.1142
தற்காக	-10.1146
திராவிட	-10.1148
▁மரம்	-10.1149
▁விற்பனை	-10.1149
▁ஓவிய	-10.115
▁சுற்றுச்சூழல்	-10.1155
ach	-10.1159
▁ஐதரசன்	-10.1159
வட	-10.1164
▁பொருளாதாரம்	-10.1166
ப்பில்	-10.1167
▁இயந்திர	-10.1171
▁இராசத்தான்	-10.1173
▁இவ்வாறு	-10.1179
▁பொதுவுடமைக்	-10.1184
▁தொகைக்	-10.119
▁அங்கீகரிக்க	-10.119
▁அரசர்கள்	-10.1197
bo	-10.1198
▁==	-10.1201
விலும்	-10.1202
▁நீதிமன்ற	-10.1203
ology	-10.1205
▁இயக்குநர்கள்	-10.1211
திருவள்ளூர்	-10.1215
ap	-10.1222
▁தரும்	-10.1227
76	-10.1232
▁தொடர்ச்சி	-10.1233
▁நிர்வாகத்	-10.1235
▁கோப்பை	-10.1238
div	-10.1238
▁பணியாற்றி	-10.124
▁ஹோ	-10.1243
▁63	-10.1243
▁1969	-10.1245
▁அரியானா	-10.1252
▁அடையாளப்படுத்த	-10.1253
▁59	-10.1261
▁Nadu	-10.1266
5%	-10.1268
▁k	-10.127
ner	-10.1273
▁அத்துடன்	-10.1282
சன	-10.1282
▁கொண்டிருக்கும்	-10.1291
▁Li	-10.1294
திருப்பூர்	-10.1299
த்ரா	-10.1305
2013	-10.1306
chi	-10.1308
▁இரவு	-10.131
யுள்ள	-10.1317
▁will	-10.1318
▁மூலக்கூறு	-10.1323
▁கிரா	-10.1325
▁Ha	-10.1328
▁வேதி	-10.1332
▁வங்க	-10.1333
▁புதூர்	-10.1338
▁புத்த	-10.134
ஈ	-10.1342
и	-10.1343
னியம்	-10.1348
ங்குளம்	-10.1349
ish	-10.1355
▁ஆஃப்	-10.1358
▁கன்னட	-10.1361
▁அவற்றின்	-10.1367
▁Ca	-10.1368
கல	-10.1374
wiki	-10.1376
▁நான்காவது	-10.1377
த்திற்கும்	-10.138
▁தளத்தில்	-10.1385
▁பாம்பு	-10.1389
ன்ன	-10.1391
size	-10.1394
Na	-10.1397
▁கங்கை	-10.1397
க்கர்	-10.1402
நத்தம்	-10.1404
▁அறியப்பட்ட	-10.1406
விக்கிப்பீடியா	-10.1406
▁வெண்	-10.1409
%8	-10.1411
ா்	-10.1413
do	-10.1422
▁வள	-10.1425
▁சூழப்பட்டுள்ளது	-10.1425
▁வழங்கப்படும்	-10.1428
கன்னியாகுமரி	-10.143
ழை	-10.1432
▁Ar	-10.1432
▁உச்ச	-10.1442
தேவி	-10.1445
▁மகாராட்டிர	-10.1448
▁தாக்குதல்	-10.1449
ேஸ்வரர்	-10.1452
▁இந்நகரம்	-10.1454
▁இப்போது	-10.1457
சிவ	-10.1466
▁காந்த	-10.1468
▁விஷ்ணு	-10.147
▁குடியரசுத்	-10.1471
jpg	-10.1472
▁ஓய்வு	-10.1478
▁new	-10.1484
▁படத்தில்	-10.1487
ட்டில்	-10.1489
▁தேர்	-10.1492
▁பாக்	-10.1498
▁இருக்கலாம்	-10.1499
வலைவாசல்	-10.1503
▁புராணம்	-10.1509
▁தாவரவியல்	-10.1517
▁பரி	-10.1522
▁11,	-10.1524
▁பாடகர்	-10.1524
▁பொட்டாசியம்	-10.1529
▁ஒன்றை	-10.1531
▁விழுக்காடு	-10.1532
▁கிழக்கில்	-10.1534
ட்டின்	-10.1534
▁தெய்வ	-10.1545
up	-10.1553
▁ஊடக	-10.1555
▁வெளியிட	-10.1558
▁கொரிய	-10.1558
au	-10.1562
▁பிரம்ம	-10.1562
ுவதற்காக	-10.1563
▁பாண்டிய	-10.1565
An	-10.1565
களே	-10.1568
ence	-10.1569
▁வழிபாடு	-10.1569
cgi	-10.157
▁நம்பிக்கை	-10.1573
▁ஆகியன	-10.1575
mer	-10.1575
ல்லி	-10.1575
▁மிக்க	-10.1577
tic	-10.1584
▁ஆடை	-10.1585
▁உருசிய	-10.1587
▁தாக்க	-10.1594
▁en	-10.1594
▁கால்பந்து	-10.16
ையா	-10.16
புரா	-10.1606
ā	-10.1612
ib	-10.1616
▁ஆல	-10.1616
▁தொடக்க	-10.1617
▁நான்	-10.1617
▁குர்	-10.1625
▁தலைநகரம்	-10.1634
Infobox	-10.1641
▁அதிமுக	-10.1646
ங்களுள்	-10.1646
ca	-10.165
2011	-10.1654
▁1979	-10.1655
▁எதிரான	-10.1658
▁மூலமாக	-10.1662
а	-10.1681
▁பயண	-10.1682
▁வினைபுரியச்	-10.169
▁ஒன்பது	-10.169
▁அவ	-10.169
▁விஜய	-10.1692
▁ரூ	-10.1693
கொண்ட	-10.1694
84	-10.1705
▁விவசாய	-10.1706
▁குழுவின்	-10.1709
▁ஆப்பிரிக்க	-10.171
4%	-10.1713
▁பந்து	-10.1714
▁பதினெட்டாம்	-10.1714
▁வெவ்வேறு	-10.1714
der	-10.1717
▁1964	-10.1721
▁1965	-10.1722
▁சுற்றுலாத்	-10.1723
▁அன்ன	-10.1726
▁மகள்	-10.1734
▁அங்க	-10.1744
▁முக்கியத்துவம்	-10.1745
▁உள்	-10.1753
ke	-10.1755
ேன்	-10.1757
▁கட்சிகள்	-10.1758
val	-10.1769
▁அறக்கட்டளை	-10.177
மலேசிய	-10.1771
லுக்கு	-10.1772
▁அகணிய	-10.1773
our	-10.1777
▁International	-10.1784
▁கலாச்சார	-10.1786
▁தென்காசி	-10.1786
▁லீ	-10.1789
ரச	-10.1794
▁பெயரிடப்பட்டது	-10.1803
ty	-10.1804
▁பசு	-10.1809
▁வினைகள்	-10.181
▁பள்ளிகள்	-10.1815
திண்டுக்கல்	-10.1826
▁பிறந்தவர்	-10.1831
▁தூரத்தில்	-10.1832
▁புனே	-10.1838
▁பாடல்களை	-10.184
ki	-10.1841
Se	-10.1849
▁ஒதுக்கப்பட்ட	-10.1851
சிவகங்கை	-10.1851
ஐயனார்	-10.1851
▁சனி	-10.1852
▁இவ்வூர்	-10.1858
har	-10.186
▁காஷ்மீர்	-10.1861
▁செலுத்த	-10.1862
▁நிறுத்த	-10.1863
▁பெயரால்	-10.1864
▁பணிகள்	-10.1866
▁65	-10.1866
▁நூலக	-10.1868
▁நடித்துள்ளனர்	-10.1871
▁சேர	-10.189
▁ஆக்க	-10.1893
▁முந்தைய	-10.1896
▁கோட்ட	-10.1907
▁வெளியிட்ட	-10.1907
▁பின்னணி	-10.1912
ஸ	-10.1915
வாரி	-10.1917
ெ	-10.1924
si	-10.1925
மூர்த்தி	-10.1926
▁சன்	-10.1926
background	-10.1927
▁57	-10.1928
▁உதவும்	-10.1932
▁சென்	-10.1933
▁எழு	-10.1935
▁மூர்த்தி	-10.1937
▁அமைப்பின்	-10.1937
காட்	-10.1942
ுவதற்கான	-10.1942
▁68	-10.1942
top	-10.1944
▁வாக்கு	-10.1945
▁கோவை	-10.1946
நாதன்	-10.1958
ஒரு	-10.1959
▁உப	-10.196
ref	-10.1963
▁தேச	-10.1967
▁மேற்கில்	-10.1975
▁பேரவைத்	-10.1977
▁பார்வை	-10.1977
▁வாயு	-10.1978
எல்	-10.1979
▁அமைக்கப்பட்ட	-10.1979
▁திரை	-10.1991
▁Mo	-10.1996
▁நிருவாக	-10.2002
▁திருமண	-10.2011
▁தோன்றிய	-10.2012
▁இப்பேரூராட்சி	-10.2013
oc	-10.2013
▁கிழக்கே	-10.2014
▁ஆகியவற்றின்	-10.2017
▁மலைகள்	-10.2027
▁வானியலாளர்கள்	-10.2027
▁பாரதி	-10.2031
ைத்	-10.2031
;"	-10.2038
min	-10.2039
▁ஆந்திர	-10.2039
▁வசிக்கின்றனர்	-10.204
▁என்ன	-10.2045
வரின்	-10.2063
ig	-10.2073
▁சாதி	-10.2077
ிடம்	-10.2078
▁அடையாள	-10.2079
▁செல்சியசு	-10.208
▁படங்கள்	-10.2083
Template	-10.2083
▁இறைவன்	-10.2085
▁தோற்ற	-10.209
▁கோல்	-10.2097
▁பகுதியின்	-10.21
▁தெற்கில்	-10.2102
டிய	-10.2103
னான்	-10.2107
▁கழகத்தின்	-10.2109
▁கப்பல்	-10.2113
▁ஆவண	-10.2121
▁பாகை	-10.2121
▁துறைமுக	-10.2122
ற்றி	-10.2129
▁நாளில்	-10.2131
▁மருந்து	-10.2132
ூரில்	-10.2132
ஃபி	-10.2135
▁இத்தகைய	-10.214
▁தாலுகா	-10.2147
▁லே	-10.2153
சீன	-10.2156
▁சராசரியாக	-10.2156
▁பேச்சு	-10.2158
காடு	-10.2169
▁பரப்பளவில்	-10.2179
முனை	-10.2188
▁ஆலயம்	-10.2191
▁67	-10.2194
▁ஏக்கர்	-10.2197
▁நிகழ்வு	-10.2199
சான்	-10.2199
கில்	-10.2199
▁மொழிகளில்	-10.2202
▁சிற்றூர்	-10.2203
▁நடித்தார்	-10.2204
க்கே	-10.2215
▁தொடர்கள்	-10.2218
▁நாராயண	-10.2226
new	-10.2226
▁தவளை	-10.2228
▁உறுதி	-10.2232
நில	-10.2233
▁கட்டிட	-10.2237
▁பயன்படுத்தப்படு	-10.2243
▁ஆண்டிற்கான	-10.2243
▁58	-10.2245
▁1950	-10.2259
▁கட்சியில்	-10.226
▁அரு	-10.2261
▁பின்வருமாறு	-10.2269
▁வீடு	-10.228
▁விலங்குகள்	-10.228
ab	-10.228
Ar	-10.228
ராஜா	-10.2281
ow	-10.2283
89	-10.2285
▁பின்ன	-10.2287
▁புல்	-10.2291
றிய	-10.2297
வைச்	-10.2303
▁சர்மா	-10.2305
▁Pa	-10.2306
▁{{#	-10.2307
▁கலந்த	-10.2307
தூ	-10.2315
ுவ	-10.232
▁கிளி	-10.2322
▁64	-10.2326
ill	-10.2327
காலனி	-10.2327
▁குறிக்க	-10.2338
▁கட்டுரைகளை	-10.2338
▁இவ்வகை	-10.2347
sh	-10.2358
▁1975	-10.2365
▁College	-10.2367
▁சிறப்பாக	-10.2372
▁தேவையான	-10.2373
▁வயதிற்குட்பட்ட	-10.2373
▁parameter	-10.2386
▁கூட்டமைப்பு	-10.2387
▁88	-10.2397
தார்	-10.2398
த்திரி	-10.2405
▁பேச	-10.2407
▁இந்துக்கள்	-10.2408
▁கார்பன்	-10.2412
In	-10.2414
ff	-10.2422
▁நூலின்	-10.2422
▁உட்	-10.2426
▁பாடசாலை	-10.2442
▁உதய	-10.2445
▁சோவியத்	-10.2445
▁நியமிக்கப்பட்டா	-10.2446
ழ்	-10.2448
யாவார்	-10.2448
னீ	-10.245
▁See	-10.2451
▁நாட்களில்	-10.2455
▁ஆகியவற்றில்	-10.2455
▁ஜம்மு	-10.2458
காஞ்சிபுரம்	-10.2463
gu	-10.2467
▁மல	-10.2467
▁இலக்கணம்	-10.2476
ாள்	-10.2476
▁பண்பாட்டு	-10.248
▁பகுதியை	-10.2481
▁கடை	-10.2483
▁அப்போது	-10.2483
▁கடந்த	-10.249
▁விளையாட்டுப்	-10.2491
port	-10.2492
▁நிறம்	-10.2494
▁நோபல்	-10.2497
one	-10.2499
துறை	-10.25
பரி	-10.2503
▁நூலகம்	-10.2509
▁நூலில்	-10.251
▁மூலவர்	-10.2513
▁ஓர	-10.2517
▁வரு	-10.2517
னிக்	-10.252
ுல்	-10.2523
1980	-10.2527
▁முறையாக	-10.2529
▁காலமானார்	-10.2532
▁காணலாம்	-10.2535
▁அறிக்கை	-10.2546
▁location	-10.2548
▁பேரரசின்	-10.2549
▁கோட்பாடு	-10.255
ளு	-10.255
வரி	-10.2551
ப்படுத்த	-10.2553
ுடைய	-10.2554
▁அதிகமான	-10.2555
▁வர்த்தக	-10.2559
தெ	-10.2562
மல்	-10.257
▁other	-10.2571
▁மாநகர	-10.2573
▁வழங்குகிறது	-10.2574
▁மலையாளத்	-10.2576
▁பொதுவுடைமை	-10.2578
▁Th	-10.2579
▁(18	-10.2584
▁என்றால்	-10.259
▁நிறுவனத்தில்	-10.2591
ali	-10.2595
▁சர	-10.2597
▁1947	-10.2606
lam	-10.2615
▁நிர்வாகம்	-10.2616
▁அறை	-10.2618
▁•	-10.2619
▁செட்டி	-10.2619
▁அமை	-10.2622
▁வைத்த	-10.2624
width	-10.2626
▁கனடா	-10.2628
யாளர்	-10.2629
▁(1	-10.2629
ப்படை	-10.2632
▁தன்னை	-10.2633
புர	-10.2635
▁வைக்க	-10.2636
000	-10.2636
▁1974	-10.2654
பீகார்	-10.2654
▁என்பன	-10.2657
▁மாற்றம்	-10.266
▁நீக்க	-10.2661
▁கலைக்	-10.2663
▁விசை	-10.2665
▁இராகங்கள்	-10.2669
▁சுந்தர	-10.2673
▁விளங்குகிறது	-10.2679
ாம்	-10.2683
வேலூர்	-10.2688
▁காரணம்	-10.2694
▁நூலை	-10.2695
▁நடன	-10.2697
ard	-10.2698
▁Se	-10.2702
▁சதவீதம்	-10.2705
2003	-10.2706
▁Sri	-10.2707
▁II	-10.2716
ுகிறார்கள்	-10.2719
▁உறுப்பு	-10.2721
▁அல்ல	-10.2723
▁காலை	-10.2731
▁நிறைந்த	-10.2736
▁இருபது	-10.274
2008	-10.2741
▁இந்தச்	-10.2745
▁சிங்க	-10.2756
▁திருச்சி	-10.276
▁கடவுள்	-10.2761
▁இராகத்தில	-10.2765
▁பிரதமர்	-10.2768
▁மன்னன்	-10.2786
▁காம	-10.2786
2009	-10.2787
▁மாற்று	-10.2791
அரியலூர்	-10.2805
ரசியல்வாதியாவார்	-10.2811
ver	-10.2812
▁காற்று	-10.2813
▁படைகள்	-10.2816
ங்காடு	-10.2817
▁ஆனது	-10.2817
▁ஒன்றியங்கள்	-10.2818
iya	-10.282
▁கிருஷ்ணா	-10.2825
▁தம்பி	-10.2825
tan	-10.2826
▁தலைநகர்	-10.2827
▁போன்றவற்றை	-10.2832
▁table	-10.2834
க்குழு	-10.2835
▁போலவே	-10.2836
லூ	-10.2841
▁வாய்ந்த	-10.2843
▁அழி	-10.2844
▁முடிய	-10.2844
▁பிரபு	-10.2852
▁இந்	-10.2855
ப்பாக்கம்	-10.2857
▁இணைக்கிறது	-10.2857
▁டேவிட்	-10.2861
▁வள்ளி	-10.2866
▁கிருஷ்ணன்	-10.2868
▁al	-10.2873
ிருக்க	-10.2875
able	-10.2876
பகுப்பு	-10.2876
▁பொன்	-10.2878
▁மக்	-10.2881
▁தன்னாட்சி	-10.2884
▁நல	-10.2891
ge	-10.2892
▁அளவை	-10.2894
▁காளி	-10.2898
▁It	-10.2914
தற்கு	-10.2916
▁சங்கத்	-10.2917
▁Man	-10.2917
வம்	-10.2919
▁கார்த்திகை	-10.292
▁பாய்	-10.2924
io	-10.2928
ata	-10.2931
▁எலி	-10.2933
ட்டன்	-10.2936
▁உர	-10.2937
▁['	-10.2938
▁நிறுவ	-10.2941
▁Mar	-10.2943
▁எதிர்ப்பு	-10.2943
ுக்காக	-10.2945
▁பரிந்துரைக்க	-10.2945
கின்றன	-10.2947
▁செய்	-10.2952
▁கலா	-10.2952
▁which	-10.2953
▁அறிஞர்	-10.2959
▁ய	-10.2959
▁அல	-10.296
▁கிடைக்கும்	-10.2961
ron	-10.2962
▁வித்தியாசத்தில்	-10.2968
▁பொருள	-10.2968
▁con	-10.2971
ஞ்சா	-10.2972
▁அறிவு	-10.2977
);	-10.2978
bin	-10.298
▁;	-10.2989
▁பணியாற்றியுள்ளா	-10.299
|100	-10.2992
ம்பாடி	-10.2995
▁ஜீ	-10.3002
▁கன்னி	-10.3005
பாலசுப்பிரமணியம்	-10.3005
page	-10.3005
சென்	-10.3007
▁கிட்டத்தட்ட	-10.3008
▁அறிமுகம்	-10.3009
▁உயர்நிலைப்	-10.301
▁கிபி	-10.3013
▁புரட்சி	-10.3017
ப்படாத	-10.302
▁மேற்சான்றுகள்	-10.3022
ம்பாக்கம்	-10.3024
ப்பெயர்	-10.3028
▁கொண்டுள்ள	-10.303
▁உள்ளடக்கம்	-10.3032
ஆண்டு	-10.3035
னைட்டு	-10.3035
▁நை	-10.3043
யீ	-10.3045
▁செய்கிறது	-10.3051
விலுள்ள	-10.3054
நே	-10.3055
▁சிறை	-10.3057
பட்டு	-10.3058
▁mw	-10.3058
safe	-10.3058
▁இராச	-10.3061
▁நீரில்	-10.3082
India	-10.3084
▁Ch	-10.3085
red	-10.3093
▁செயல்பட்டு	-10.3093
▁போன்று	-10.3093
சைட்டு	-10.3095
ara	-10.3097
▁பொறி	-10.3101
▁8,	-10.3103
க்குத்	-10.3106
▁தீவில்	-10.3108
−	-10.3114
▁நிறமற்ற	-10.3118
▁இருந்தவர்	-10.3119
▁List	-10.312
▁தத்துவ	-10.312
▁மாறி	-10.3123
▁மக்களால்	-10.3124
▁இலக்கண	-10.313
▁கோர்	-10.3131
ts	-10.3137
▁was	-10.3139
han	-10.3139
▁தம்	-10.3139
▁pages	-10.3142
▁அருணாசலம்	-10.3142
பம்	-10.3145
▁உலகம்	-10.3149
▁பகுதிகளை	-10.3152
ten	-10.3156
▁வழிகாட்டி	-10.3164
▁அனைத்துலக	-10.3164
▁பெயர்கள்	-10.3167
▁இராச்சியத்தின்	-10.3168
▁மெய்	-10.317
ேசுவரர்	-10.3176
▁நீதிபதி	-10.3176
க்கின்	-10.3178
▁இத்தொகுதி	-10.3178
▁ரூபாய்	-10.3179
▁அம்மா	-10.3179
ற்கு	-10.3187
Si	-10.319
▁Institute	-10.3192
▁தொடரில்	-10.3196
▁மன்றங்கள்	-10.3196
<	-10.3199
▁ஆட்ட	-10.3203
▁வகையாகும்	-10.3211
▁பிரபல	-10.3214
</	-10.3215
▁குரல்	-10.3219
▁இவருடைய	-10.322
ani	-10.3221
▁நோக்க	-10.3226
▁இவற்றை	-10.3231
▁தயாரித்த	-10.3232
▁தோட்ட	-10.3233
▁தென்கிழக்கு	-10.3236
2018	-10.3238
▁கூட்டணி	-10.3239
▁வழங்கப்படுகிறது	-10.3239
▁கண்டு	-10.3243
▁இளைய	-10.3244
▁தரம்	-10.3251
▁வாகன	-10.3251
▁சுழற்சி	-10.3253
▁உண்மை	-10.3257
2016	-10.3258
▁எழுதினார்	-10.3267
மத்தியப்	-10.3272
தீன்	-10.3272
▁குறைவான	-10.3273
National	-10.3274
▁ஒய்	-10.3274
▁மது	-10.328
▁மகாராட்டிரா	-10.3282
__	-10.3283
▁கொலை	-10.3285
கள்ளக்குறிச்சி	-10.3289
▁பணியாற்றிய	-10.3289
▁கேரளத்தின்	-10.3289
▁இருந்துள்ளார்	-10.3297
▁Di	-10.3298
ee	-10.3301
▁He	-10.3303
▁கொல்கத்தா	-10.3306
இராமநாதபுரம்	-10.3322
mon	-10.3323
▁மருத்துவர்	-10.3326
▁62	-10.3331
ical	-10.3334
ber	-10.3338
gi	-10.3338
▁இறுதியில்	-10.334
▁Vol	-10.334
▁அணிக்காக	-10.3347
▁சிந்து	-10.3349
index	-10.335
▁நு	-10.335
ப்பணி	-10.3355
br	-10.3358
▁—	-10.3362
▁400	-10.3363
▁1976	-10.3365
▁பேரரசர்	-10.3367
▁என்பதாகும்	-10.3379
▁மலையாளம்	-10.338
▁ஆன்	-10.3382
விட்டு	-10.3384
▁அதிகார	-10.3384
ஊ	-10.3387
▁குஜராத்	-10.339
▁ஜானகி	-10.3393
dy	-10.3393
▁வாலி	-10.3394
▁ஓட்ட	-10.3395
ய்யா	-10.3396
ag	-10.3399
▁சாம்பல்	-10.34
▁படைப்புகள்	-10.3404
▁போரின்	-10.3407
▁உத்தர	-10.3409
▁களில்	-10.3412
:10	-10.3413
av	-10.3416
▁அறியப்படும்	-10.3426
▁பட்டை	-10.3429
▁இயக்குநராக	-10.3435
▁ஷ	-10.3436
▁Ne	-10.3439
▁தோல்	-10.3439
▁புளோரைடு	-10.3443
end	-10.3443
▁வருகின்றனர்	-10.3445
தான	-10.3446
▁இசையில்	-10.345
▁ராணி	-10.3452
ley	-10.3456
▁பொருட்களை	-10.3459
▁கட்டு	-10.3465
▁பாக	-10.3466
▁வலை	-10.3466
▁டெட்ரா	-10.3467
▁தேர்தல்களில்	-10.3468
▁அட்டவணை	-10.3468
▁திரைப்படத்துறை	-10.3472
▁பிணைப்பு	-10.3472
▁பாண்டியன்	-10.3476
▁தொழில்நுட்பம்	-10.3476
▁மேளகர்த்தா	-10.3478
▁மன்ன	-10.3485
▁சார்ந்தவர்	-10.3487
யற்ற	-10.349
மற்ற	-10.3493
bar	-10.3498
▁விரைவுவண்டி	-10.3501
காம்	-10.3505
▁இதய	-10.3506
ger	-10.3507
முடி	-10.3513
120	-10.3513
▁முதுகலை	-10.3517
▁title	-10.3517
tha	-10.3518
யினால்	-10.3521
ஆங்கிலத்	-10.353
▁மிகுந்த	-10.3535
▁ஆயிரம்	-10.3538
மிட	-10.3541
▁மாவட்டப்	-10.3544
▁கட்டுப்படுத்த	-10.3545
patti	-10.355
▁அட்	-10.355
▁உருவான	-10.3552
▁இரயில்	-10.3558
▁பேரினங்கள்	-10.356
▁உலகில்	-10.3564
பொருள்	-10.3569
▁அளவிலான	-10.3569
ina	-10.3573
ous	-10.3574
▁இச்	-10.3578
▁தற்கால	-10.358
▁தாழ்	-10.3581
▁யோக	-10.359
▁கல்ல	-10.3592
ந்த்	-10.3595
▁மன்னர்கள்	-10.3595
▁கீழ்க்காணும	-10.3598
az	-10.3601
▁புராண	-10.3601
day	-10.3602
▁லீக்	-10.3603
▁எகிப்திய	-10.3605
▁சட்டப்பேரவையில்	-10.3607
▁பென்	-10.3609
ا	-10.3612
▁முதன்மையான	-10.3615
▁250	-10.3618
▁அழகிய	-10.362
ick	-10.3624
ling	-10.3628
▁அவன்	-10.3629
▁மெய்யியல்	-10.363
▁இளைஞர்	-10.3632
ran	-10.3633
ure	-10.3634
ப்பூ	-10.3635
ாட்சி	-10.3637
▁இம்மொழி	-10.3638
ராம	-10.3641
▁தந்த	-10.3643
500	-10.3643
▁பிள்ளையார்	-10.3645
▁அடையாளம்	-10.3645
▁மீனாட்சி	-10.3645
▁செய்திகள்	-10.3651
▁மண்டலத்தில்	-10.3651
▁வருகின்றது	-10.3654
▁நகரமாகும்	-10.3654
▁information	-10.3657
ea	-10.3663
▁கம்ப	-10.3671
▁என்றழைக்கப்படும	-10.3672
SO	-10.3672
▁ஜேம்ஸ்	-10.3672
▁பலரும்	-10.3674
▁கோண	-10.3678
த்துக்	-10.3682
▁திட்டங்கள்	-10.3685
▁இயங்குகிறது	-10.3688
மாலை	-10.3688
▁Society	-10.3702
fe	-10.3706
▁ஆரம்பகால	-10.371
▁பள்ள	-10.3714
▁படிப்புகள்	-10.3716
ுகின்றது	-10.3717
▁ஆண்டுதோறும்	-10.3719
▁கோயிலின்	-10.372
▁பொழுது	-10.3722
idae	-10.373
மார்க்சிஸ்ட்	-10.3732
▁இணைத்து	-10.3732
ின்றன	-10.3733
ீஸ்வரர்	-10.3734
▁May	-10.3734
மண	-10.3734
▁தொடங்கியது	-10.3736
mar	-10.3736
▁பாசு	-10.3737
▁வழக்க	-10.3739
▁Go	-10.3744
▁கிளா	-10.3746
3%	-10.3754
▁பெறும்	-10.3763
9%	-10.3766
▁சுற்று	-10.3771
▁State	-10.3771
code	-10.3773
க்கொண்டு	-10.3777
▁ராமசாமி	-10.3779
ம்பட்டு	-10.3791
ங்கர்	-10.3792
▁குழுவில்	-10.3796
NH	-10.3802
▁River	-10.3803
▁இணைந்த	-10.3804
ob	-10.3804
ரிசு	-10.381
▁வரையிலான	-10.381
▁1948	-10.3811
ப்பான	-10.3812
▁கண்டுபிடிப்பு	-10.3815
களைச்	-10.3817
▁தலைமையகம்	-10.3818
னல்	-10.3819
த்தன்	-10.3823
▁அமைப்பில்	-10.3825
▁பார்த்த	-10.3826
த்தைத்	-10.3827
ந்தோ	-10.3827
ாறு	-10.3831
lan	-10.3831
ஆங்கில	-10.3834
▁வழங்கியது	-10.3836
▁இயற்கைப்	-10.3839
▁சுகாதார	-10.3839
▁எலும்பு	-10.3845
▁Journal	-10.3847
▁கிறித்தவ	-10.3849
app	-10.3849
▁குறுகிய	-10.3851
▁தமிழகத்தின்	-10.3858
▁வளரும்	-10.386
▁குற்ற	-10.3864
he	-10.3867
கூர்	-10.3872
▁துறைகளில்	-10.3874
▁Museum	-10.3875
▁உயிரினங்கள்	-10.3875
ப்பாடி	-10.3877
▁இருந்தன	-10.3882
2010	-10.3883
▁புறநகர்	-10.3884
▁Sh	-10.3887
▁site	-10.3888
ath	-10.3889
▁கூற	-10.3891
▁Ro	-10.3893
▁1973	-10.3893
குளோரோ	-10.3898
▁முன்னோடி	-10.3898
மொ	-10.3898
▁Ga	-10.3904
▁பந்த	-10.3905
கண்ட	-10.3905
ராசு	-10.391
▁எரிமலை	-10.3917
▁ஒடுக்க	-10.3918
▁அணியில்	-10.3918
சேரி	-10.392
வேண்டும்	-10.3921
▁Ma	-10.3921
▁இராஜ	-10.3923
கரூர்	-10.3924
▁இத்தாலிய	-10.3925
▁ஆலை	-10.3926
▁புலவர்கள்	-10.393
As	-10.393
▁81	-10.393
▁சட்டமன்றத்தின்	-10.3931
ho	-10.3932
▁பாடகர்கள்	-10.3935
▁சேவைகள்	-10.3937
▁names	-10.3939
▁அமைதி	-10.3946
ven	-10.395
▁ஹே	-10.3951
▁American	-10.3952
▁சிவாஜி	-10.3953
▁இறைவி	-10.3955
▁பிறர்	-10.396
▁77	-10.3965
▁ஈழ	-10.3965
hu	-10.3967
▁அகமது	-10.3969
▁காலி	-10.3971
▁மாநிலங்களவை	-10.3974
▁ஊராட்சிக்கு	-10.3975
▁செங்கல்பட்டு	-10.3981
edu	-10.3984
▁பட்டியலில்	-10.3993
300	-10.3993
▁79	-10.4002
இது	-10.4003
▁செய்யப்பட்டு	-10.4008
தியா	-10.4009
▁பஞ்சாயத்து	-10.4017
▁9,	-10.4021
▁1930	-10.4022
▁உள்ளடக்கிய	-10.4027
▁கணபதி	-10.4029
▁மின்ன	-10.4031
▁நாட்காட்டியில்	-10.4032
ari	-10.4033
▁இந்தியக்	-10.4038
ஜே	-10.4039
▁தொகுதியிலும்	-10.404
▁உரிமைகள்	-10.4042
ராஜ	-10.4042
▁அரசன்	-10.4047
▁2-	-10.4047
▁நாடகத்	-10.4047
▁நகரத்திற்கு	-10.4049
▁பேரின	-10.405
ப்பாக	-10.4058
bi	-10.406
▁இயங்கும்	-10.4061
▁ஈரமான	-10.4061
இரு	-10.4063
▁பாயும்	-10.4064
▁ஆள்கூறுகள்	-10.4068
▁ஆசிரியராக	-10.4069
வடக்கு	-10.4076
▁முக்கோண	-10.4079
டிக்	-10.4081
▁செயல்முறை	-10.4082
▁ரீதியாக	-10.4083
ரைட்டு	-10.4089
எச்	-10.4098
▁மேற்கொள்ளப்பட்ட	-10.4101
ன்று	-10.4105
▁Lo	-10.4107
▁1961	-10.4112
''	-10.4112
8%	-10.4119
▁கட்டிடங்கள்	-10.4122
▁வாழ்	-10.4123
ore	-10.4123
▁வாய்	-10.4124
▁இசைக்	-10.4124
▁மேம்பாட்டு	-10.413
▁இக்கிராமத்தில்	-10.4133
▁முறைமை	-10.4134
▁தொழிலாளர்	-10.4134
மானி	-10.4138
▁அடுக்கு	-10.4143
▁South	-10.4152
▁பரப்பளவைக்	-10.4152
▁பாகிஸ்தான்	-10.4155
ica	-10.4162
▁500	-10.4164
ek	-10.4165
ind	-10.4165
main	-10.4167
ண்டை	-10.417
▁Science	-10.4178
ini	-10.4179
▁மலையில்	-10.4186
200	-10.4186
▁குள	-10.4197
▁வரலாற்றில்	-10.4204
ஈழத்து	-10.4206
▁நடத்திய	-10.4208
▁தலைப்பு	-10.4209
▁இள	-10.421
▁Ta	-10.4218
▁பழனி	-10.422
▁தகவல்கள்	-10.4223
▁York	-10.4224
தாஸ்	-10.4225
▁தடகள	-10.423
Di	-10.4232
▁கரி	-10.4234
▁இப்பகுதியில்	-10.4238
மெத்தில்	-10.4239
▁வர்மா	-10.4242
gen	-10.4247
மிய	-10.4248
▁தென்னிந்திய	-10.425
▁உருவாக்கிய	-10.4251
▁கண்ணாடி	-10.4251
ph	-10.4257
ப்பது	-10.4263
▁அமைக்க	-10.4266
▁மக்களுக்கு	-10.4267
▁கலவை	-10.4267
▁வீட்டு	-10.4268
பெர்	-10.4268
▁குண்டு	-10.4271
▁இஸ்லாமிய	-10.4272
▁76	-10.4273
▁இந்நூல்	-10.4275
▁பயணம்	-10.4275
▁சாய்	-10.4277
க்கன்	-10.4284
che	-10.4285
van	-10.4286
▁Bar	-10.4286
▁தலைவர்கள்	-10.4289
▁அரசர்	-10.429
த்ரி	-10.429
நெல்	-10.4294
▁1956	-10.4296
▁முன்னதாக	-10.4298
▁வாழ்க்கைக்	-10.4299
▁திருப்பத்தூர்	-10.4304
▁திருத்த	-10.4304
-18	-10.4305
▁முடித்தார்	-10.4306
கிழக்கு	-10.4307
ண்டோ	-10.4308
▁18,	-10.4311
▁கொண்டுள்ளன	-10.4318
▁விளம்பர	-10.4319
▁இளநிலை	-10.432
இங்கிலாந்து	-10.432
பெரு	-10.4321
▁குரோ	-10.4322
▁செயற்கை	-10.4327
▁சாதனை	-10.4335
▁முதலிய	-10.4346
ting	-10.4352
info	-10.4353
▁என்பவை	-10.4361
▁120	-10.4362
▁சித்ரா	-10.4365
▁61	-10.4373
▁12,	-10.4374
▁John	-10.4376
▁மாநிலங்கள்	-10.4378
▁வேதிச்	-10.438
▁English	-10.4381
▁Dr	-10.4384
ப்பொருள்	-10.4387
ங்களைப்	-10.4391
▁அரசால்	-10.4396
▁திரைப்படத்தின்	-10.4402
டில்	-10.4404
▁செர்	-10.4405
▁கல்லூரிகளும்	-10.4408
லான்	-10.441
ம்பூர்	-10.441
=|	-10.4418
thi	-10.4419
குரு	-10.4422
ane	-10.4423
▁நிலம்	-10.4426
மெரில்	-10.4426
▁எடுத்து	-10.443
▁ஆங்கிலேய	-10.443
▁பீட்டர்	-10.4433
▁விழாக்கள்	-10.4435
▁குறிப்பிடுகிறது	-10.4435
▁தொழில்நுட்பக்	-10.4438
ளவு	-10.4442
▁Encyclopedia	-10.4443
▁width	-10.4447
▁Si	-10.4447
▁விவரம்	-10.4448
ங்கல்	-10.445
வாலா	-10.445
▁இதுவரை	-10.4451
▁முன்ன	-10.4454
▁நூல்களில்	-10.4458
▁இப்படத்தை	-10.4466
▁தொன்மவியல்	-10.4468
சாரி	-10.4469
▁என்பவரை	-10.4469
▁பயணிகள்	-10.4473
ேரி	-10.4475
▁கலி	-10.4475
▁ராமநாதபுரம்	-10.448
frame	-10.448
▁சட்டப்படி	-10.448
▁அம்	-10.4481
▁கேரளா	-10.4485
ava	-10.4487
▁ஹரி	-10.4488
1972	-10.4491
▁கொடுக்க	-10.4494
ிருக்கிறார்	-10.4496
▁Vi	-10.4497
▁(19	-10.4497
அனைத்திந்திய	-10.4497
▁இக்கோயிலின	-10.4498
▁Per	-10.4498
▁வம்ச	-10.4499
▁first	-10.45
▁Ho	-10.45
ot	-10.4501
ஜீ	-10.4501
லக	-10.4507
க்களின்	-10.4509
▁ஆரம்பிக்கப்பட்ட	-10.4516
▁தமிழ்நாட்டு	-10.4518
கோயில்	-10.4523
▁கந்த	-10.4529
▁விளக்கு	-10.4531
▁டொ	-10.4536
நெ	-10.4537
▁about	-10.4538
▁டிரை	-10.4539
▁ஸ	-10.4543
▁முருக	-10.4543
ரியோ	-10.4545
▁சிறப்புப்	-10.4548
▁ஆட்சிப்	-10.4553
▁கடற்படை	-10.4561
▁அசு	-10.4562
மூர்	-10.4563
▁இப்படத்தில்	-10.4564
▁110	-10.4569
▁நூல்களை	-10.4575
▁நீதி	-10.4576
▁பத்ம	-10.4584
▁சமண	-10.4585
▁எதிர்த்து	-10.4586
குறுங்கட்டுரைகள்	-10.4588
▁Temple	-10.459
▁சுவை	-10.4596
▁திறந்த	-10.4596
2022	-10.4599
▁நாட்காட்டி	-10.4604
ஸ்ரீ	-10.4605
▁தேவர்	-10.4606
ep	-10.4607
▁69	-10.4608
▁தாயார்	-10.461
▁parameters	-10.461
க்கப்பட்டது	-10.461
▁இவ்வூரின்	-10.461
▁நீர	-10.4612
▁இயக்கினார்	-10.4613
▁கூடுதல்	-10.4613
தமிழ்நாட்டில்	-10.4613
▁அழுத்த	-10.4613
▁இந்நகரத்தின்	-10.4614
box	-10.4621
▁விலங்கியல்	-10.4625
ms	-10.4633
▁சுல்தான்	-10.4641
ராஜன்	-10.4642
▁மணந்தார்	-10.4643
▁பூமி	-10.4644
▁71	-10.4646
Th	-10.4648
▁காட்டும்	-10.4648
▁கோழி	-10.4651
La	-10.4651
▁__	-10.4655
rd	-10.4655
▁அழகு	-10.4656
Ma	-10.4657
▁பயின்றார்	-10.466
▁துணி	-10.4663
▁வாழ	-10.4663
▁சபா	-10.4663
▁நாட்டுப்புற	-10.4669
type	-10.4672
ris	-10.4672
▁வாழ்க்கையை	-10.4673
▁செய்யப்படுகிறது	-10.4676
ைய	-10.4677
புளோரோ	-10.468
my	-10.468
▁காலநிலை	-10.4681
▁சீனிவாசன்	-10.4683
▁மைசூர்	-10.4683
ுமாறு	-10.4685
▁நடித்துள்ள	-10.4686
குல	-10.4688
▁ஐரோப்பா	-10.4688
▁இலங்கைத்	-10.4689
▁background	-10.4689
ng	-10.4691
▁சுற்றியுள்ள	-10.4693
வேதி	-10.4694
▁72	-10.4694
▁பன	-10.4697
ற்ப	-10.4698
▁லு	-10.4698
ட்டம்	-10.47
▁சின்னம்	-10.4702
date	-10.4703
▁ரொ	-10.4704
ஞ்சேரி	-10.4708
▁புறா	-10.4718
பேச்சு	-10.4719
▁நபர்	-10.4726
ஆத்திரேலிய	-10.473
▁அயோடைடு	-10.4732
நாக	-10.4734
▁அஸ்	-10.4735
ham	-10.4739
கால்	-10.474
▁தாய்லாந்து	-10.474
▁மாநிலத்தை	-10.4741
கரை	-10.4742
▁ஆய்வுகள்	-10.4746
னன்	-10.4747
▁நெய்	-10.4749
▁விதை	-10.4749
▁1954	-10.475
▁வைர	-10.4754
▁விரைவு	-10.4755
▁பெயர	-10.4755
▁மிதவெப்பமண்டல	-10.4758
சைவ	-10.476
▁மேற்கே	-10.4761
▁குட	-10.4762
▁இயற்றிய	-10.4765
லிங்கம்	-10.4765
க்களை	-10.4768
ies	-10.477
▁அந்தமான்	-10.4772
நேபாள	-10.4773
க்குச்	-10.4777
ண்டே	-10.4778
ளம்	-10.478
நாகப்பட்டினம்	-10.4781
▁வாங்க	-10.4781
▁மருத	-10.4789
▁Research	-10.4792
▁பயன்கள்	-10.4793
▁un	-10.4793
▁பாவ	-10.4798
▁சம்	-10.4799
▁பத	-10.4801
▁சட்டசபை	-10.4802
▁வழித்தடம்	-10.481
▁83	-10.4812
▁தென்மேற்கு	-10.4814
▁கோவா	-10.4815
2017	-10.4816
பென்	-10.4817
▁செய்யப்படும்	-10.4818
▁center	-10.4818
▁ஆலைடுகள்	-10.4819
ஜெ	-10.4821
▁மேடை	-10.4821
▁செயல்படும்	-10.4823
▁display	-10.4836
▁கொட்டாய்	-10.4838
")	-10.4839
▁கோர	-10.4839
▁குருதி	-10.4842
▁கவிதைகள்	-10.4844
பன்னாட்டு	-10.4849
▁year	-10.485
pp	-10.4853
▁பண	-10.4857
tt	-10.4857
த்துவ	-10.4859
வீர	-10.4866
களாகவும்	-10.4872
▁விளையாட	-10.4876
▁கூறுகிறது	-10.4877
க்குறிச்சி	-10.4881
▁கான	-10.4883
▁திரவ	-10.4883
▁அவருக்கு	-10.4884
▁March	-10.4892
▁சீர்	-10.4896
சர	-10.4902
பில்	-10.4905
▁பிரான்சு	-10.4907
முள்ள	-10.4909
▁Sabha	-10.4909
▁only	-10.4909
▁பள்ளத்தாக்கு	-10.491
எண்	-10.4921
▁பொறுப்பு	-10.4923
▁உரிய	-10.4928
லியம்	-10.493
▁குறிப்ப	-10.4931
தமிழ்நாட்டின்	-10.4935
1%	-10.4935
▁இரயில்வே	-10.4945
▁$	-10.4945
▁பதிலாக	-10.4945
▁ஆடு	-10.4949
▁நேரு	-10.4951
nam	-10.4952
▁பூச்சி	-10.4954
▁புதிதாக	-10.4954
ss	-10.4955
▁நுட்ப	-10.4958
ning	-10.4959
▁தமிழ	-10.496
▁Har	-10.496
க்கில்	-10.4961
▁என்பதால்	-10.4961
▁இயங்கி	-10.497
▁10,	-10.4973
▁அருள்	-10.4977
▁கிடைக்கிறது	-10.4977
▁கலிபோர்னியா	-10.4978
▁கொண்டதாக	-10.4979
ட்டூர்	-10.4982
னுடன்	-10.4983
▁padding	-10.4988
த்தினால்	-10.4991
▁அச்சு	-10.4992
▁Usage	-10.4994
▁ஊருணி	-10.4994
▁Volume	-10.4994
▁இங்கே	-10.5002
▁வேட்பாளராகப்	-10.5008
▁என்பர்	-10.5009
▁அடங்குவர்	-10.5011
▁நெருங்கிய	-10.5013
▁அறுவை	-10.5016
மாகக்	-10.5016
கட்சி	-10.5016
▁சிவராத்திரி	-10.5018
▁13,	-10.5019
▁போட்டியிட்ட	-10.502
▁வடிவமைக்கப்பட்ட	-10.5021
ஞ்சு	-10.5023
▁co	-10.5024
iv	-10.5031
▁1968	-10.5035
▁பண்பு	-10.5036
▁Dictionary	-10.5036
▁பட்	-10.5037
ரெட்டி	-10.5038
ிலேயே	-10.5042
▁தண்ணீர்	-10.5043
பியா	-10.5054
செல்	-10.5056
ுவர்	-10.5056
▁மக்களும்	-10.5057
▁number	-10.5057
▁பிரகாஷ்	-10.506
▁பந்துவீச்சு	-10.5062
▁வைணவ	-10.5066
▁குகை	-10.5069
▁சமுதாய	-10.5071
▁ஒன்றில்	-10.5071
▁சூர	-10.5075
▁சக	-10.5078
▁துறைகள்	-10.5086
gar	-10.5087
ரங்க	-10.5092
▁தொகுதியை	-10.5095
▁பெருமை	-10.5097
▁டு	-10.5097
2006	-10.5099
கட்	-10.51
ene	-10.51
▁Ni	-10.5102
▁சாமி	-10.5102
▁மக்கள்தொகையில்	-10.5103
பெரம்பலூர்	-10.5108
▁பரா	-10.5108
pe	-10.511
▁நீள	-10.5113
▁சத்திய	-10.5116
▁வனவிலங்கு	-10.5117
oor	-10.5117
wi	-10.5117
▁பொதுச்	-10.5118
▁85	-10.5118
ற்க	-10.5118
▁பரவ	-10.5119
▁Park	-10.5122
▁காந்தாரம்	-10.5123
▁பாரசீக	-10.5123
மியா	-10.5125
▁முக்கியமாக	-10.5129
▁யூத	-10.5131
▁எடுக்கப்பட்ட	-10.5134
▁நீதிபதியாக	-10.5134
▁பாரா	-10.5139
ுதி	-10.5141
▁கிடைத்த	-10.5141
▁மொழிபெயர்ப்பு	-10.5146
ிக்க	-10.5146
▁தொடு	-10.5146
▁Website	-10.5148
▁நுண்	-10.5149
▁தட	-10.5153
▁pro	-10.5157
தற்கான	-10.5161
▁அழைக்கப்பட்டது	-10.5163
லாந்து	-10.5164
▁சாம்	-10.5166
▁Ex	-10.5169
மடை	-10.517
▁78	-10.517
▁true	-10.5173
▁all	-10.5177
ct	-10.5177
▁ஜெய்	-10.5178
வாதி	-10.5179
eci	-10.5185
▁விருப்ப	-10.5185
ஞ்	-10.5186
▁கங்கா	-10.5187
▁ஃபி	-10.5193
▁ஏனைய	-10.5194
▁குமார	-10.5195
▁இக்கிராமம்	-10.5197
▁bottom	-10.5202
▁ஆகியோரின்	-10.5202
▁நூல	-10.5203
யிட	-10.5204
க்களில்	-10.5205
க்கால்	-10.5211
▁படங்களில்	-10.5211
ௌ	-10.5212
▁i	-10.5212
வளை	-10.5212
சிறு	-10.5214
2012	-10.5225
}	-10.5231
▁கால்வாய்	-10.5233
2007	-10.5233
cat	-10.5233
▁நடுத்தர	-10.5235
ud	-10.5238
art	-10.5239
வல	-10.524
▁1958	-10.5244
▁தரை	-10.5245
eng	-10.5246
▁Species	-10.5247
ஜன்	-10.5252
▁அதனால்	-10.5257
டுகள்	-10.5257
▁date	-10.5269
▁using	-10.527
▁London	-10.5272
▁பிராந்திய	-10.5272
▁அத்தி	-10.5273
▁பட்டி	-10.5273
ated	-10.5275
▁ஆளுநர்	-10.5276
வல்லி	-10.5276
ராய	-10.5277
▁செடி	-10.528
விருதுநகர்	-10.5284
ட்சி	-10.529
▁1963	-10.5292
▁அரங்க	-10.5293
▁பெல்	-10.5299
5)	-10.5302
▁நிறை	-10.5303
▁வேளாண்	-10.5304
பாடி	-10.5306
den	-10.5307
ft	-10.5308
ங்கை	-10.5309
தாரி	-10.531
▁வெளியே	-10.5312
1989	-10.5315
ory	-10.5319
ரண	-10.532
▁ஆப்பிரிக்கா	-10.5328
▁வெண்பா	-10.533
▁சிக்க	-10.5331
▁கந்தக	-10.5332
ns	-10.5334
▁கேரளாவின்	-10.5337
▁சமாஜ்வாத	-10.5338
▁கல்லறை	-10.5341
▁1959	-10.5343
ece	-10.5344
ef	-10.5346
▁Car	-10.5351
வேல்	-10.5352
▁படகு	-10.5352
▁மல்ல	-10.5355
▁முகம்மது	-10.5358
▁1966	-10.5359
▁கட்சியினை	-10.536
▁ஆர	-10.5361
▁இங்குக்	-10.5364
tri	-10.5365
og	-10.5367
ேசு	-10.5371
▁ஏர்	-10.5371
▁குழி	-10.5372
▁சோம	-10.5374
▁நான்காம்	-10.5376
ஃபா	-10.5377
apuram	-10.5377
▁விஸ்வநாதன்	-10.5377
ub	-10.5378
க்கலை	-10.5379
▁திருச்சபை	-10.5383
யாகக்	-10.5384
▁வேர்	-10.5387
▁நரம்பு	-10.539
4)	-10.539
ler	-10.5391
con	-10.5392
▁மலாய்	-10.5392
▁வைகாசி	-10.5393
▁நிறுவினார்	-10.5394
ஆசிய	-10.5396
▁ஆங்கிலத்தில்	-10.5399
2015	-10.5404
▁கருவிநூல	-10.541
▁தொகையியல்	-10.5411
▁அவற்றை	-10.5412
வாறு	-10.5412
▁தயாரிக்கலாம்	-10.5417
nu	-10.5418
▁மக்களவைக்கு	-10.5422
▁If	-10.5422
▁அரசாங்க	-10.5426
டும்	-10.5427
noinclude	-10.5428
ient	-10.5432
=3	-10.5434
▁முழுமையாக	-10.5435
▁பிளா	-10.5435
▁89	-10.5437
▁சிறுகதை	-10.5441
1996	-10.5445
கோட்	-10.5446
▁தைவதம்	-10.5446
▁ஐந்தாவது	-10.5446
ீசுவரர்	-10.5449
▁அமைப்பாகும்	-10.545
▁மேட்டு	-10.545
2019	-10.5452
▁Module	-10.5453
▁சேனா	-10.5457
▁உடை	-10.5459
▁மேற்	-10.546
▁எசுப்பானிய	-10.5462
que	-10.5463
ேட்டு	-10.5463
▁முத்த	-10.5463
▁தோற்கடித்தார்	-10.5465
▁இயக்கியுள்ளார்	-10.5468
▁அவ்வ	-10.5468
▁கொச்சி	-10.5468
▁சக்கரத்தின்	-10.547
உலக	-10.5471
▁நேரங்களில்	-10.5472
sk	-10.5478
▁வெளிவந்தது	-10.548
▁உள்ளடங்குவர்	-10.5482
▁Accessed	-10.5482
ப்பேட்டை	-10.5483
▁பயன்	-10.5484
யிர	-10.5488
▁Kumar	-10.5489
ங்களால்	-10.5491
▁மணிக்கு	-10.5491
dia	-10.5495
▁108	-10.5495
▁நார்	-10.5498
▁நடத்தி	-10.5499
▁அரக்கோணம்	-10.55
film	-10.55
wikipedia	-10.55
▁சற்று	-10.55
▁பார்வதி	-10.5502
▁சோழன்	-10.5506
▁இமாச்சலப்	-10.5507
Pa	-10.5507
:14	-10.5509
வெல்	-10.5512
▁சம்பா	-10.5513
▁வயதுக்குட்பட்ட	-10.5518
அறிவியல்	-10.5518
▁இல்லாமல்	-10.5519
▁பின்பற்ற	-10.5519
ov	-10.5521
▁அனுப்ப	-10.5522
▁வீடுகளும்	-10.5524
▁வடமேற்கு	-10.5526
பக்க	-10.5527
▁ஊரின்	-10.5528
ங்களாகும்	-10.5529
▁கிராமமாகும்	-10.5531
ச்சொல்	-10.5537
▁ஆதாரம்	-10.5539
▁வழியில்	-10.554
ern	-10.5541
▁மாற்றப்பட்டது	-10.5548
▁சார்பு	-10.5548
▁உள்ளடக்கியது	-10.555
▁இளையராஜா	-10.5555
பஞ்சாப்	-10.5555
archive	-10.5555
கோவில்	-10.5556
▁தயாரிப்பாளர்	-10.5557
▁ஆற்றில்	-10.556
ஷன்	-10.5566
cl	-10.5569
▁அரசியலில்	-10.5575
▁பாலா	-10.5576
▁பய	-10.5577
les	-10.5578
▁மத்திமம்	-10.558
இந்தியக்	-10.5584
▁பல்கலைக்கழகத்	-10.5587
ுவதால்	-10.5591
பல	-10.5593
▁Day	-10.5594
▁உயர	-10.5594
▁font	-10.5595
border	-10.5596
ric	-10.5597
List	-10.5603
▁சார்ந்தது	-10.5603
மன	-10.5604
நகர	-10.5605
▁ஆரம்பமான	-10.5606
▁முனையம்	-10.5607
▁(2	-10.5607
▁காரண	-10.5608
▁தன	-10.5609
▁அமையும்	-10.561
யாழ்ப்பாண	-10.561
▁இப்பிரிவு	-10.5611
▁மேம்படுத்த	-10.5614
nn	-10.5615
சால்	-10.5618
1995	-10.5618
▁இராம்	-10.5618
சாலை	-10.5619
▁வீதி	-10.5623
gal	-10.5624
நீ	-10.5626
▁பாய்கிறது	-10.5627
ஸ்டர்	-10.5631
▁வாழ்ந்து	-10.5632
▁தலைமையிடம்	-10.5633
▁பேரினத்தில்	-10.5638
▁நேரடியாக	-10.5641
▁தீவுகளில்	-10.5643
▁ஏகாதசி	-10.5644
▁links	-10.5646
கோட்டை	-10.5653
▁இலிருந்து	-10.5657
தாவர	-10.566
nadu	-10.5661
ங்களான	-10.5661
▁Cl	-10.5663
ங்கிய	-10.5669
▁பக்கத்தில்	-10.5669
▁எர்	-10.567
▁அறு	-10.567
▁கடந்து	-10.567
var	-10.567
எசு	-10.5675
▁அலுவலக	-10.5678
▁பொன்ன	-10.5679
▁நடுவில்	-10.5679
வரு	-10.568
ந்தன்	-10.5685
பெல்	-10.5686
▁have	-10.5686
பெற்ற	-10.5687
லைட்டு	-10.5693
▁அமைப்பை	-10.5695
▁ஆய்	-10.5697
▁பேசும்	-10.5701
▁மன்னார்	-10.5706
ED	-10.5707
ினர்	-10.5707
▁இமயமலை	-10.5711
▁அலுவலரா	-10.5714
ada	-10.5714
லாக	-10.5715
வாடா	-10.5716
▁பங்களிப்பு	-10.5718
தொகுதி	-10.5718
▁சனதா	-10.5721
▁நூ	-10.5721
▁உருவாக்குகிறது	-10.5722
▁செயலி	-10.5724
முத்து	-10.5725
▁படத்தின்	-10.5727
▁வெளிப்புற	-10.5728
சமுத்திரம்	-10.5732
வழ	-10.5732
ster	-10.5733
▁தலைமையில்	-10.5735
▁),	-10.5743
▁திணைக்களம்	-10.5745
ியம்	-10.5749
ரஸ்	-10.575
▁Pro	-10.5753
▁பாதுகாக்க	-10.5757
Ka	-10.5757
த்தன்மை	-10.5764
▁உறை	-10.5765
▁சிற்ப	-10.5767
▁ஒர்	-10.577
▁its	-10.5771
▁அரங்கம்	-10.5773
இசுலாமிய	-10.5777
air	-10.5778
பயனர்	-10.5778
by	-10.5785
▁la	-10.5785
▁தொகுதிகளும்	-10.5786
▁ஆக்சிசனேற்ற	-10.5786
▁நின்று	-10.5789
▁தாவரம்	-10.5792
பெருமாள்	-10.58
▁பெற்றோர்	-10.58
▁82	-10.5803
▁வெங்கட	-10.5804
▁நீலகிரி	-10.5807
census	-10.5808
▁சீனாவின்	-10.5811
▁மண்டபம்	-10.5814
அசாம்	-10.5815
கல்வி	-10.5818
St	-10.5819
▁சூழல்	-10.5822
னசு	-10.5823
-3	-10.5827
▁இவ்வட்ட	-10.5828
ப்படுத்தும்	-10.5828
▁January	-10.583
web	-10.5834
▁பாத	-10.5838
▁ஜு	-10.5844
▁காற்பந்து	-10.5846
▁has	-10.5849
▁குவா	-10.5851
▁இணைக்க	-10.5854
und	-10.5856
▁Mi	-10.5857
மனித	-10.5857
▁எளிய	-10.5864
▁சாந்தி	-10.5866
▁ஒருவராக	-10.5867
▁பட்டத்தை	-10.5867
we	-10.5868
▁திண்ம	-10.5875
▁கால்நடை	-10.588
▁திரிணாம	-10.5883
▁திட்டத்தில்	-10.5889
வதற்கு	-10.589
ப்பகுதியில்	-10.5891
▁கூட்டுறவு	-10.5895
▁கோடு	-10.5896
▁நேரடி	-10.5901
▁ஆகம	-10.5915
ின்றது	-10.5918
▁73	-10.5918
▁ஏற்பட்டது	-10.5922
rs	-10.593
ji	-10.5931
லிங்க	-10.5934
களிடம்	-10.5934
எடுத்துக்காட்டாக	-10.5935
▁நாட்டைச்	-10.5936
▁line	-10.5938
▁நிறைவேற்ற	-10.5939
AN	-10.594
ஆங்கிலேய	-10.5947
Category	-10.5947
▁பட்டமும்	-10.595
Me	-10.5952
raj	-10.5953
▁முது	-10.5955
▁தெரியவில்லை	-10.5958
▁வார்	-10.5965
▁அதி	-10.5967
▁தொழிற்	-10.5973
த்தம்	-10.5974
▁சோசலிச	-10.5976
▁தனிம	-10.5978
▁யார்	-10.5978
▁கட்டிடம்	-10.598
▁கூறும்	-10.5981
▁கொத்த	-10.5981
▁require	-10.5983
▁type	-10.5984
▁நாடாளுமன்றத்	-10.5985
▁பாணி	-10.5987
▁செயலகங்கள்	-10.5987
▁கிலோமீட்டர்கள்	-10.5991
De	-10.5992
▁பார	-10.5994
▁பன்	-10.5997
hy	-10.5997
▁வெளியிட்டது	-10.5998
▁தூர	-10.5998
▁அறநிலைய	-10.6004
ich	-10.6008
ுரு	-10.6009
ip	-10.6011
தேவ	-10.6012
▁பிள	-10.6014
▁படுகொலை	-10.6014
▁இவ்வூரில்	-10.6015
யுடைய	-10.6016
க்கால	-10.6019
▁இல்ல	-10.6019
▁நாம்	-10.6021
▁செய்யப்பட்டார்	-10.6022
▁கோட்டம்	-10.6024
ன்னா	-10.6025
▁பகுதியான	-10.6027
▁பாதிக்கப்பட்ட	-10.6031
gan	-10.6031
▁தொலை	-10.6032
ர்களின்	-10.6037
▁one	-10.6041
வடி	-10.6044
காரி	-10.6046
நீர	-10.6048
▁கணிதம்	-10.6048
யாகப்	-10.6051
▁மியான்மர்	-10.6052
▁தேர்தல்கள்	-10.6053
▁இக்கட்சி	-10.6053
db	-10.6055
▁தயாரிப்பில்	-10.6056
▁சுருக்க	-10.6057
▁கண்டுபிடித்த	-10.6058
▁இன்னும்	-10.606
▁வம்சம்	-10.606
▁பயிர்	-10.6061
्	-10.607
▁மையமாக	-10.607
▁மலையின்	-10.6073
▁துணைத்	-10.6081
=1	-10.6083
▁அமிலங்கள்	-10.6087
▁>	-10.6091
▁வைகுண்ட	-10.6092
சூர்	-10.6093
▁இப்படம்	-10.6097
▁இணையத்தளம்	-10.6097
ப்படுவது	-10.6097
வற்ற	-10.6103
for	-10.6103
▁ஆத்திரேலியா	-10.6103
1983	-10.6105
▁வலைத்தளம்	-10.6105
▁பெரிதும	-10.6106
▁தோன்றும்	-10.6106
▁இடைநிலை	-10.6106
▁நிலா	-10.6109
▁may	-10.611
▁1945	-10.6111
▁நாடாளுமன்றம்	-10.6112
கொள்ள	-10.6115
▁15,	-10.6117
ட்டிய	-10.612
போல்	-10.6123
ரல்	-10.6124
நாராயண	-10.6126
▁என்கிற	-10.6126
ரிக்	-10.6128
▁1927-	-10.613
▁கோள	-10.6131
கிரா	-10.6131
▁ஏரிகள்	-10.6132
▁நட்சத்திர	-10.6137
▁எடுக்க	-10.6144
▁குருவி	-10.6144
▁சிங்கள	-10.6144
▁திருவ	-10.6145
▁விரும்ப	-10.6145
▁மீதான	-10.6146
▁Times	-10.6148
கிமு	-10.6148
ருடன்	-10.615
2024	-10.6151
▁Su	-10.6152
▁கிறித்தவர்கள்	-10.6156
▁Lanka	-10.6156
▁அண்ட	-10.6157
▁தேவார	-10.6158
▁வெளியேற்ற	-10.6161
za	-10.6168
▁14,	-10.6169
கரம்	-10.6171
▁பெருநகர	-10.6171
▁பட்டு	-10.6172
▁சந்திரன்	-10.6176
▁காட்சிப்படுத்த	-10.6177
adi	-10.6177
Module	-10.6178
▁கன்	-10.6179
▁ஆண்டி	-10.618
▁any	-10.6182
▁நோக்கம்	-10.6182
▁இதனுடைய	-10.6185
▁July	-10.6187
▁வென்று	-10.619
▁ரு	-10.6194
▁வளர்ந்த	-10.6195
ல்ல	-10.6197
2023	-10.6198
▁நகருக்கு	-10.6201
▁தீர்த்த	-10.6205
▁மேரி	-10.6205
▁அற	-10.6218
மேன்	-10.622
▁பொழுதுபோக்கு	-10.6224
▁வேடங்களில்	-10.6226
od	-10.6228
▁align	-10.6232
bu	-10.6239
▁குறியீட்டு	-10.624
டசு	-10.6247
▁யாழ்ப்பாணம்	-10.6247
ாண்ட	-10.6256
ந்திர	-10.6256
▁விட்ட	-10.6258
▁பகதூர்	-10.6262
▁உருவாக்கும்	-10.6263
▁எப்படி	-10.6269
▁புதின	-10.6269
▁CH	-10.627
▁City	-10.627
ஐரோப்பிய	-10.6275
▁வகித்த	-10.6276
▁di	-10.6278
தில்லி	-10.628
▁should	-10.6282
5,000	-10.6282
கும்	-10.6283
▁கருப்ப	-10.6286
▁ஆவார்கள்	-10.6287
▁Or	-10.6288
▁அலுமினியம்	-10.629
▁சட்டப்பேரவை	-10.6291
▁1937	-10.6292
டாக்	-10.6293
▁ரை	-10.6293
நோபல்	-10.6296
ண்டர்	-10.6296
place	-10.6299
▁நாட்டை	-10.6299
sub	-10.6299
▁இருப்பது	-10.6299
மேல்	-10.6305
▁கொடை	-10.6305
▁வணிகவியல்	-10.6307
▁காவிரி	-10.6309
▁மாட	-10.6317
▁ஹை	-10.6317
கின்றது	-10.6318
லட்சுமி	-10.6319
▁வருட	-10.632
^	-10.632
eg	-10.6323
esh	-10.6324
குஜராத்	-10.6325
▁பயன்பாட்டு	-10.6327
▁ஜோதி	-10.6328
▁தில்லியில்	-10.6329
▁இளமை	-10.633
1990	-10.633
மாவட்ட	-10.6334
வளைய	-10.6337
7%	-10.6339
ொ	-10.6339
▁தினமலர்	-10.6342
▁குட்டி	-10.6344
▁வெளியிட்டார்	-10.6346
▁அமைச்சர்கள்	-10.6351
▁Hindu	-10.6354
▁கைது	-10.6357
▁20,	-10.6357
▁Results	-10.6359
▁value	-10.6361
▁சத்ய	-10.6361
▁News	-10.6362
Li	-10.6366
▁Po	-10.6371
▁இலக்குகள்	-10.6372
AR	-10.6376
நாயக்கன்பட்டி	-10.6376
Ra	-10.6377
ice	-10.6377
வேதியியல்	-10.6377
▁se	-10.6383
▁இராச்சிய	-10.6388
▁சுவர்	-10.6388
▁1940	-10.6389
▁பொருளியல்	-10.639
▁பேரினம்	-10.6393
▁நீர்ம	-10.6396
▁நாடகங்கள்	-10.6403
sha	-10.6406
▁ஆத்திரேலிய	-10.6407
ாளர்கள்	-10.6409
3-	-10.6409
▁தாள	-10.6416
வையும்	-10.6417
▁பெரி	-10.6417
மல	-10.6418
▁வசித்து	-10.6421
▁அமைக்கப்பட்டது	-10.6425
நோ	-10.6425
▁தீவின்	-10.6425
▁நீதிமன்றம்	-10.6426
▁தூண்ட	-10.6427
ட்ரோ	-10.6427
▁சேர்மத்தை	-10.6427
▁இயல்	-10.6429
▁குறைவாக	-10.6429
▁இந்தோனேசியா	-10.6432
▁பெங்களூர்	-10.6434
po	-10.6437
▁கேள்வி	-10.6438
▁விளைவாக	-10.6439
வைக்	-10.644
▁தலைவன்	-10.644
▁குடிமக்கள்	-10.6442
▁சங்கீத	-10.6449
▁et	-10.6451
ண்ணா	-10.6453
பண்டைய	-10.6454
▁பஞ்சமம்	-10.6458
▁கொல்லப்பட்டனர்	-10.6459
▁அமைத்த	-10.6461
▁வாணி	-10.6468
mm	-10.6472
▁1920	-10.6473
சங்கர்	-10.6474
▁வில்	-10.6476
▁துவக்க	-10.6477
▁தண்ட	-10.6477
▁உருவானது	-10.6478
▁திருப்பதி	-10.6484
ம்பை	-10.6485
▁தலைப்பில்	-10.6486
க்கொண்ட	-10.6492
மருத்துவ	-10.6496
▁/*	-10.6499
▁அட்டை	-10.65
▁அடைந்த	-10.6502
▁கன்னடம்	-10.6508
▁சியா	-10.6509
▁தேவ்	-10.6509
cha	-10.6515
▁Chemistry	-10.6517
▁1955	-10.6519
▁87	-10.6521
▁நிலையத்தில்	-10.6522
war	-10.6522
▁June	-10.6523
▁அன	-10.6523
:12	-10.6525
▁நாவல்	-10.6526
▁கண்டறியப்பட்டது	-10.6526
▁இந்நிறுவனம்	-10.6527
மைய	-10.6533
▁தெரிவு	-10.6533
பத்	-10.6538
ேஷ்	-10.6539
க்கார	-10.6542
▁மையத்தில்	-10.6543
▁கொரியா	-10.6543
ப்பிர	-10.6543
▁கடலில்	-10.6544
▁26,	-10.6545
கஞ்ச்	-10.6549
▁130	-10.655
▁கும்பகோணம்	-10.6556
▁கொடு	-10.6558
▁ஆட்சியின்	-10.6559
▁முனிவர்	-10.656
▁நல்	-10.6561
о	-10.6562
▁புரத	-10.6567
▁நிறுவிய	-10.6571
▁articles	-10.6572
▁பொருளை	-10.6575
கணினி	-10.6582
▁தர்	-10.6582
▁பாதி	-10.6584
150	-10.6585
▁படிப்பு	-10.6587
$	-10.6588
சுர	-10.659
▁சுரங்க	-10.6591
▁பின்பு	-10.6591
▁வெப்பம்	-10.6594
\	-10.6595
▁default	-10.6599
wan	-10.6599
யோடு	-10.6601
▁Oxford	-10.6605
2005	-10.6606
வள	-10.6609
sc	-10.6612
▁வகையைச்	-10.6613
▁21,	-10.6614
▁see	-10.6616
இந்த	-10.6616
▁விண்மீன்கள்	-10.6619
tro	-10.6619
▁வார்டுகளும்	-10.662
ன்ற	-10.6624
▁துப்பாக்கி	-10.6625
▁முதுகலைப்	-10.6626
▁அகல	-10.6628
span	-10.6629
▁வளர்க்க	-10.663
▁எடுத்த	-10.6632
▁ஐதராக்சைடு	-10.6634
▁சீதா	-10.6634
▁எப்	-10.6635
▁சுப்பிரமணிய	-10.6639
▁அம்ம	-10.6639
san	-10.6639
▁பூக்கும்	-10.664
▁தின	-10.6641
ுக்	-10.6644
▁தொடங்கப்பட்ட	-10.6646
1991	-10.6654
▁மின்னணு	-10.6656
▁வினைபுரிந்து	-10.6656
▁சிவா	-10.6658
மில்	-10.6659
லிருந்து	-10.6659
▁ஐயர்	-10.666
யிலேயே	-10.6661
▁பரந்த	-10.6662
▁கண்டறிய	-10.6662
ப்படுத்தி	-10.6667
▁அபி	-10.667
மக்கள்	-10.6672
▁காய்	-10.6673
▁செயலாளராக	-10.6674
▁1931	-10.6674
▁Do	-10.6676
▁மார்க்	-10.6676
▁ஏனெனில்	-10.6676
▁19,	-10.6676
ப்படுத்தினார்	-10.6679
ென்	-10.668
▁solid	-10.668
▁நம்பப்படுகிறது	-10.6685
▁இலித்தியம்	-10.6685
▁ஓவியம்	-10.6686
▁1949	-10.6688
▁மன்றம்	-10.6688
▁நாய்	-10.6689
த்தலை	-10.6689
க்கல	-10.6691
▁அறிமுக	-10.6691
மென்	-10.6692
க்கப்பட்டு	-10.6693
▁கோவில்கள்	-10.6696
க்கப்படும்	-10.6697
ட்ரி	-10.6699
sen	-10.6699
▁தியோ	-10.6701
ிசை	-10.6702
க்கிய	-10.6704
▁குழுக்கள்	-10.6704
▁அனைத்தும்	-10.6706
▁l	-10.6707
க்கொள்ள	-10.6708
▁மட்ட	-10.6708
▁22,	-10.6708
▁தொழிற்சாலை	-10.6709
களுக்குப்	-10.6712
▁பேசப்படுகிறது	-10.6713
▁Data	-10.6717
▁மென்	-10.672
▁மக்களவையில்	-10.6721
வாக்கம்	-10.6725
▁போர்கள்	-10.6725
▁War	-10.6727
ena	-10.6728
ப்ரா	-10.673
ins	-10.6731
▁முறைகள்	-10.6731
▁April	-10.6734
▁ஆட	-10.6738
tal	-10.674
ரியன்	-10.6747
▁ராதா	-10.675
▁ஆதார	-10.6751
▁சிற்றின	-10.6753
ade	-10.6755
▁தத்துவம்	-10.6756
▁அண்ட்	-10.6756
way	-10.6756
▁லிங்க	-10.676
▁தொடர்வண்டி	-10.6761
▁கல்வியை	-10.6765
▁Page	-10.6767
தமிழ்ப்	-10.6768
:13	-10.6769
▁margin	-10.6769
அறிவிக்கப்பட்டது	-10.6775
—	-10.6779
▁காய	-10.6784
kan	-10.6784
▁இறை	-10.679
▁கதைகள்	-10.679
ளே	-10.6794
ப்பெற்ற	-10.6798
lit	-10.68
சிறந்த	-10.6801
கட்டப்பட்டுள்ளது	-10.6802
▁தலைவி	-10.6804
▁திருத்தந்தை	-10.6806
▁அழக	-10.681
ஜோ	-10.681
▁தங்கம்	-10.681
குவா	-10.682
ிகள்	-10.6823
ுவதாக	-10.6823
▁மேலே	-10.6824
▁தேவாலயம்	-10.683
▁1935	-10.6831
▁கிரே	-10.6832
▁கதிர	-10.6835
▁பயன்படுத்தும்	-10.6838
▁பாட்டீல்	-10.6839
▁நாடகம்	-10.6839
▁முதல்வர்	-10.684
png	-10.6842
▁அணைகள்	-10.685
ிடமிருந்து	-10.685
வியா	-10.6851
டைட்டு	-10.6851
▁கொண்டவை	-10.6852
க்குறி	-10.6853
▁உச்சி	-10.6861
▁இருப்பதாக	-10.6862
▁கௌ	-10.6862
ash	-10.6864
ith	-10.6864
ிருந்து	-10.6867
▁ஓட்டங்கள்	-10.6869
▁ஈடுபட்டு	-10.6875
▁பாசி	-10.688
▁விலை	-10.6881
▁மாநாடு	-10.6883
▁புரோமைடு	-10.6884
▁எகிப்தின்	-10.6886
▁{|	-10.6887
ita	-10.6887
▁செய்தது	-10.6888
▁இங்கிலாந்தின்	-10.6889
▁பொருளாக	-10.6889
கரி	-10.6889
ey	-10.6893
aya	-10.6894
▁இந்தோ	-10.6896
▁சர்க்கரை	-10.6896
tn	-10.6897
▁frame	-10.6897
க்கொ	-10.6897
ஞ	-10.6899
▁அகராதி	-10.6902
▁சூரியன்	-10.6905
▁தொலைக்காட்சித்	-10.6906
▁நாட்ட	-10.6908
▁திருமலை	-10.6909
▁Ko	-10.6912
1999	-10.6915
ுகின்ற	-10.6916
கரா	-10.6916
AA	-10.6916
▁முன்னேற்ற	-10.6916
ि	-10.6921
▁கட்டுமான	-10.6926
▁வலி	-10.6926
▁கவி	-10.6928
▁தசை	-10.6928
▁டீ	-10.6929
▁யோ	-10.693
▁தமிழகத்தில்	-10.6935
▁வரதராஜ	-10.6938
▁பயனர்கள்	-10.6939
▁கோபால்	-10.694
▁நாராயண்	-10.694
ிருக்கலாம்	-10.6942
டியம்	-10.6945
▁கோயிலில்	-10.6945
புதுச்சேரி	-10.6947
▁கோபி	-10.6952
▁November	-10.6953
▁தலைமுறை	-10.6957
▁வருகை	-10.6958
▁கொடுத்த	-10.6959
google	-10.6962
▁Jersey	-10.6962
▁சுசீலா	-10.6962
▁1939	-10.6968
லங்கா	-10.6971
2000	-10.6972
▁வெட்டு	-10.6974
கிராம	-10.6983
so	-10.6984
▁பெருங்கடல்	-10.6985
▁84	-10.6989
▁வேல	-10.6992
▁குளோ	-10.6995
▁station	-10.6997
▁காணப்பட்டது	-10.7
▁1938	-10.7003
▁சிந்தனை	-10.7003
▁பாட்டியல்	-10.7004
▁சாகுபடி	-10.7004
கட்ட	-10.7006
▁பகுதிக்கு	-10.7007
டென்	-10.701
ier	-10.7011
▁74	-10.7012
பாக்	-10.7014
முதல்	-10.7015
▁140	-10.7018
▁சங்கர	-10.7019
பிரி	-10.7019
மனை	-10.702
af	-10.702
ப்பெருமாள்	-10.7022
வடிவ	-10.7025
▁தன்னுடைய	-10.7026
▁சிறுகதைகள்	-10.7027
/2	-10.7028
▁பழங்குடியினரும்	-10.7031
ரொ	-10.7031
PH	-10.7039
▁பல்கலைக்	-10.7039
▁தலைமையிலான	-10.7046
களி	-10.7047
▁மாளிகை	-10.7047
▁விவரங்கள்	-10.7048
▁மரங்கள்	-10.7049
▁சமூகம்	-10.705
▁மஞ்ச	-10.7052
ாக்சைடு	-10.7055
ுவதை	-10.7056
▁விளைவு	-10.7057
▁கட்டளை	-10.706
▁கற்	-10.7062
▁23,	-10.7062
▁*/	-10.7063
▁அணிகள்	-10.7064
▁Highway	-10.7065
▁தானே	-10.7065
▁பிளே	-10.7066
▁கூறு	-10.7066
▁அவரை	-10.7068
ID	-10.7069
▁பக்தி	-10.7069
▁நடிப்பு	-10.707
பீனைல்	-10.707
அரியானா	-10.7073
▁பரப்பு	-10.7075
▁வென்றவர்கள்	-10.7079
Articles	-10.7079
▁வார்த்தை	-10.708
▁Am	-10.7081
தனி	-10.7083
▁மக்களை	-10.7084
▁பண்டார	-10.7084
▁குசராத்து	-10.7085
Le	-10.709
▁பணியில்	-10.7091
▁வசிக்கும்	-10.7092
▁மேற்கொண்ட	-10.7094
அல்லது	-10.7095
▁எனப்படுகிறது	-10.7095
▁பதினாறாவது	-10.7096
▁நிலப்பகுதி	-10.7098
▁w	-10.7098
:1980	-10.7098
▁எதிரி	-10.7099
▁இலா	-10.7099
▁27,	-10.7104
▁இசுலாமியர்	-10.7105
▁350	-10.7111
▁மேற்கோள்களும்	-10.7111
▁கிருட்டிணகிரி	-10.7113
▁பைரவர்	-10.7115
▁வாரிய	-10.7116
▁அடர்	-10.7116
▁1946	-10.7117
▁மருத்துவப்	-10.7117
வனம்	-10.7121
▁இசுலாம்	-10.7123
ens	-10.7127
▁கனக	-10.7131
▁இருந்தாலும்	-10.7135
act	-10.714
ிற்கும்	-10.7142
படுத்த	-10.7144
▁படைப்பு	-10.7145
ial	-10.7147
▁United	-10.715
▁Cr	-10.7152
▁அரசி	-10.7152
▁சொற்	-10.7156
▁உத்தரப்பிரதேச	-10.7157
▁செயல்பட	-10.7158
▁1942	-10.7158
ama	-10.7161
▁வழங்கிய	-10.7163
ii	-10.7167
▁சுர	-10.7168
mit	-10.7168
▁உறவு	-10.7169
е	-10.717
ration	-10.7173
▁அவற்றில்	-10.7177
▁வண்ணம்	-10.7178
▁முட்டை	-10.7179
lang	-10.7179
வத	-10.718
ிலி	-10.7181
சமூக	-10.7182
▁திருகோணமலை	-10.7184
இலங்கையில்	-10.7185
யினர்	-10.7186
▁பெட்டி	-10.7189
▁படிப்பை	-10.7192
▁வாய்ப்பு	-10.7193
ொலி	-10.7196
▁காவல்துறை	-10.7197
▁இதழில்	-10.7198
த்தியா	-10.7199
can	-10.7202
ப்பான்	-10.721
ளூர்	-10.7213
aspx	-10.7214
▁கிழக்கிந்திய	-10.7214
▁ஆகஸ்டு	-10.7214
▁ஜோசப்	-10.7215
▁copyright	-10.7215
க்குரிய	-10.7216
ியுள்ளார்	-10.7217
▁பதவியில்	-10.7217
▁காத்த	-10.7217
▁நிறுவனத்தால்	-10.7217
காலம்	-10.7219
▁ஆயுத	-10.7219
நாட்டு	-10.722
2004	-10.722
ight	-10.7221
கூட	-10.7221
2021	-10.7223
ுமான	-10.7224
▁கொண்டிருந்த	-10.7226
▁அள்ளி	-10.7227
▁சின்	-10.7227
▁ஆரம்பத்தில்	-10.7227
▁பெரியார்	-10.7233
▁ஸ்ரீதேவி	-10.7238
▁மதிப்பீட்டின்	-10.7242
ணர்	-10.7243
▁என்றாலும்	-10.7245
▁இடத்தையும்	-10.7245
கருநாடக	-10.7246
டாக	-10.7251
வட்ட	-10.7251
னைக்	-10.7251
ug	-10.7253
Ch	-10.7255
▁இதுவாகும்	-10.7256
▁ஃப	-10.7259
▁வகித்தார்	-10.726
▁பேரூராட்சிகள்	-10.7262
▁சமாஜ்	-10.7262
▁குண்ட	-10.7263
▁மெக்	-10.7263
▁இனப்பெருக்கம்	-10.7265
களாலும்	-10.7265
▁சித்தி	-10.7265
Mo	-10.7267
▁அமைச்சராகவும்	-10.7268
ale	-10.7273
▁சொற்கள்	-10.7273
வாத	-10.7279
வார	-10.7279
▁16,	-10.7281
▁இதழாகும்	-10.7283
வாழ்	-10.7283
ER	-10.7284
▁தேவா	-10.7288
Tamil	-10.7289
ுவதன்	-10.729
▁தெலுங்கானா	-10.7293
▁தஞ்சை	-10.7293
▁மனிதர்	-10.7294
▁சக்கர	-10.7296
▁அப்பா	-10.7296
▁சிலர்	-10.7297
▁(2005)	-10.7301
1994	-10.7303
▁பாகம்	-10.7304
▁பிரிவின்	-10.7305
பிள்ளை	-10.7307
▁பொள்ளாச்சி	-10.7308
▁கூகுள்	-10.731
▁ஆட்சியில்	-10.731
▁ex	-10.7311
▁நாணய	-10.7312
▁95	-10.7313
▁கடல	-10.7315
▁கார்த்திக்	-10.732
▁Ja	-10.7322
▁ஒட்டி	-10.7325
▁பூச	-10.7327
ப்பட்டுள்ள	-10.7329
▁கொட்ட	-10.7335
▁தமிழ்ச்	-10.7336
ிருந்தனர்	-10.7337
pal	-10.7337
சேர்	-10.7339
▁சல்	-10.734
லிங்	-10.7343
▁அகாடமி	-10.7343
▁பில்	-10.7345
▁காலங்களில்	-10.7348
▁எல்லையில்	-10.735
ுபவர்	-10.7353
·	-10.7354
lat	-10.7359
பல்லி	-10.7362
▁பரவல்	-10.7364
ys	-10.7365
▁காங்கிரசின்	-10.7366
▁விளையாடினார்	-10.7366
ட்டான்	-10.7367
▁நுழைவாயில்	-10.7368
▁பக	-10.7371
தமிழ்நாட்டுப்	-10.7371
▁கனிமத்தை	-10.7372
▁96	-10.7385
▁எக்	-10.7385
டொ	-10.7387
▁சீர	-10.7388
ஹாம்ப்	-10.7388
▁1934	-10.739
No	-10.7392
▁ஆலய	-10.7399
Ko	-10.74
▁இவரும்	-10.7405
▁இரண்டும்	-10.7406
image	-10.7407
▁கோதாவரி	-10.7407
▁வெண்மை	-10.741
தேசிய	-10.7417
▁92	-10.7419
செங்கல்பட்டு	-10.742
▁Music	-10.7422
▁டச்சு	-10.7428
▁59.5%	-10.7429
▁சினிமா	-10.743
▁தயாரிப்பாளர்கள்	-10.7431
ங்கூர்	-10.7433
▁நெறி	-10.7433
பாலம்	-10.7436
▁மாற்றி	-10.7439
▁வேட	-10.7441
{{	-10.7447
▁Government	-10.7447
▁மட்டக்களப்பு	-10.745
▁ஒப்பந்த	-10.745
▁இதையும்	-10.745
மத்	-10.7453
ினி	-10.7453
▁வேறுபட்ட	-10.7456
▁குறியீட்டால	-10.7459
shi	-10.7459
▁சோழர்	-10.746
▁எகிப்து	-10.7461
▁புரு	-10.7462
()	-10.7464
Wikipedia	-10.7464
▁தண்டனை	-10.7467
▁வய	-10.7468
யிடம்	-10.747
▁அமெரிக்கப்	-10.7473
▁நிக்கோபார்	-10.7473
கரு	-10.7474
▁பொங்கல்	-10.7475
பொது	-10.7478
▁கனிமவியல்	-10.7479
▁San	-10.7479
ae	-10.748
▁கிராம்	-10.7481
▁வளாகம்	-10.7484
சம	-10.7486
John	-10.7487
▁மரு	-10.7488
▁பாடசாலைகள்	-10.7491
▁திரும்ப	-10.7494
வர்களுக்கு	-10.7496
▁File	-10.7497
▁மீன்கள்	-10.7497
▁இருக்கிறார்	-10.7506
▁இப்பெயர்	-10.7507
▁more	-10.7507
▁நிறைவு	-10.7508
her	-10.7509
▁சொந்தமான	-10.7511
▁அமையப்	-10.7513
▁தோற்றுவிக்க	-10.7517
2001	-10.7517
▁மலேசியாவில்	-10.7518
▁24,	-10.7519
tin	-10.7521
▁86	-10.7522
▁சென்றார்	-10.7522
-4	-10.7524
▁உலர்	-10.7524
▁எக்ஸ்	-10.7525
▁சேர்மமாக	-10.7526
▁வசந்த	-10.7526
▁கணக்கு	-10.7527
ருக்கும்	-10.753
▁தேவைப்படும்	-10.7531
▁அசை	-10.7533
1-	-10.7534
▁25,	-10.7536
▁set	-10.7539
▁உதவுகிறது	-10.7539
▁செய்தல்	-10.7541
▁கோவிந்த	-10.7541
▁but	-10.7545
▁கருதப்படும்	-10.7546
▁பறக்கும்	-10.7548
▁கூடு	-10.7549
ings	-10.7553
table	-10.7553
த்தது	-10.7556
ura	-10.7559
▁நடனம்	-10.756
▁ஷட்ஜம்	-10.756
▁ஐந்தாம்	-10.7561
களாகப்	-10.7561
▁கர்நாடகா	-10.7561
ெல்லாம்	-10.7567
ave	-10.7569
வானி	-10.7572
வுட்	-10.7574
▁மின்சார	-10.7576
▁பூத	-10.7577
நிற	-10.7578
books	-10.7578
▁ஊடாக	-10.7581
▁செம்பட்டியல்	-10.7582
▁நல்லூர்	-10.7583
out	-10.7584
ையூர்	-10.7585
▁தங்கப்	-10.7588
▁ஆனந்த்	-10.7589
சினி	-10.7591
species	-10.7598
▁ஆண்டுகளாக	-10.76
ாள	-10.76
த்தவர்	-10.76
வரிசை	-10.7604
▁பத்மசிறீ	-10.7606
pro	-10.7606
▁சனநாயக	-10.7606
▁நியூயார்க்	-10.7607
▁தாமரை	-10.7607
▁பகுதியானது	-10.7608
▁அமைப்ப	-10.7609
▁துடுப்பாட்டம்	-10.7609
▁கழகத்தில்	-10.761
▁தார்	-10.7613
ிருக்கிறது	-10.7613
▁கொள்ளும்	-10.7613
ஸ்தா	-10.7617
▁கௌரவ	-10.762
▁code	-10.7622
▁States	-10.7622
▁காஞ்சி	-10.7622
▁sub	-10.7623
▁தொடர	-10.7624
▁ஏற்படுத்த	-10.7625
▁->	-10.7627
▁புரி	-10.7628
▁வாழ்விட	-10.7631
விட்ட	-10.7633
▁திருப்ப	-10.7635
Co	-10.7636
▁இப்ப	-10.764
▁மிகச்	-10.7643
க்கிறது	-10.7644
கொண்டு	-10.7644
▁17,	-10.7645
▁நீங்கள்	-10.7653
▁Gu	-10.7658
avi	-10.7659
:20	-10.7665
▁official	-10.7666
இந்தியாவின்	-10.767
▁Place	-10.7671
▁கூடுதலாக	-10.7673
▁சகோதரி	-10.7685
▁அனந்த	-10.7685
▁தமிழர்கள்	-10.7686
aj	-10.7688
வெண்	-10.7689
▁பசிபிக்	-10.7689
▁ஆட்சியாளர்	-10.7689
▁வார்டு	-10.769
▁ஜன	-10.7691
▁இயக்கி	-10.7692
▁ஏற்பாடு	-10.7693
▁கொண்டவர்	-10.7699
ாளி	-10.77
▁தளபதி	-10.7702
▁work	-10.7703
▁28,	-10.7704
▁ஆக்சிசன்	-10.7705
▁me	-10.7708
than	-10.7709
mal	-10.771
▁இந்தியன்	-10.771
ஆப்பிரிக்க	-10.7711
விளையாட்டு	-10.7711
▁முதற்	-10.7711
▁விபத்து	-10.7712
▁சார	-10.7712
Sa	-10.7715
▁ஒன்ற	-10.7717
▁சிற்றிலக்கிய	-10.7718
Ca	-10.7718
▁நடத்தை	-10.772
பசு	-10.7721
▁செங்க	-10.7725
▁மண்ண	-10.7727
வதை	-10.7729
ரியம்	-10.7729
▁சிறுவர்	-10.7735
Ne	-10.7735
ன்பட்டி	-10.7735
சந்திர	-10.7738
▁உருவாக்கி	-10.7738
ங்களுக்கும்	-10.7738
:2014	-10.7739
ுவதில்	-10.7739
▁ஆவணி	-10.774
)2	-10.774
▁பொருட்	-10.7741
ச்சர்	-10.7748
▁மாற	-10.7749
▁ஆவி	-10.775
பிய	-10.7752
▁முதலமைச்சர்	-10.7752
ம்பர்	-10.7752
▁சங்ககால	-10.7758
னப்பள்ளி	-10.7759
யனூர்	-10.776
▁மால்	-10.7761
▁நாராயணன்	-10.7761
க்கோடு	-10.7766
▁எல	-10.7771
▁நந்த	-10.7772
ப்பாறை	-10.7772
ala	-10.7773
ால	-10.7773
யாறு	-10.7773
▁அங்கீகாரம்	-10.7775
ூட்ட	-10.7776
▁பாரம்பரியக்	-10.7777
ருத்தி	-10.7779
▁நாயுடு	-10.7781
▁(2004)	-10.7784
▁தூய	-10.7785
திரைப்பட	-10.7785
▁Area	-10.7786
dar	-10.7789
▁இணைக்கப்பட்ட	-10.7789
▁இன்றைய	-10.779
▁பல்லி	-10.7794
ள்ளி	-10.7796
▁ஜூ	-10.7797
தூர்	-10.7801
கிறித்தவ	-10.7802
▁லோக்	-10.7804
▁1944	-10.7804
▁கொழுப்பு	-10.7805
cr	-10.7806
▁sp	-10.7811
row	-10.7814
ராகவும்	-10.7816
ாயி	-10.782
▁சித்திர	-10.782
▁பாளையம்	-10.7821
▁0.5	-10.7822
col	-10.7822
Sh	-10.7823
00,000	-10.7825
அறிமுக	-10.7827
▁portal	-10.7828
250	-10.7828
▁ஆகவுள்ளது	-10.7829
▁1936	-10.7829
▁அலங்கார	-10.7829
▁எண்ணிம	-10.7832
▁நாயக்கர்	-10.7833
கலா	-10.7835
▁En	-10.7845
▁கட்சியை	-10.7849
qu	-10.7851
▁நிலையான	-10.7852
▁இத்தாலி	-10.7854
▁Mon	-10.7854
▁இயேசு	-10.7855
▁சிக்கிம்	-10.7858
cy	-10.786
▁district	-10.7864
ஆங்கிலத்தில்	-10.7865
மலேசியத்	-10.7868
▁98	-10.7869
▁ஏற்பட	-10.787
▁விளை	-10.7872
▁All	-10.7875
▁இழை	-10.7878
▁அழைப்பர்	-10.788
▁கிள	-10.7882
▁தொடங்க	-10.7883
▁சிறிது	-10.7884
வலி	-10.7884
▁தனித்துவமான	-10.7885
ீஸ்	-10.7886
▁பாராளுமன்ற	-10.7888
▁1929	-10.7889
▁மிகுதியாக	-10.789
▁December	-10.789
▁சேர்ம	-10.7891
▁நிலையை	-10.7891
vel	-10.7892
பக	-10.7893
▁இலக்கு	-10.7895
▁அன்னை	-10.7895
▁நடத்தப்பட்ட	-10.7896
பத்து	-10.7896
▁கண்காட்சி	-10.7896
ாா்	-10.7896
▁அப்ப	-10.7897
nes	-10.7902
▁தவ	-10.7903
▁மோதி	-10.7905
2(	-10.7907
▁மேற்குத்	-10.7908
▁colspan	-10.7909
சொ	-10.7909
▁துறவி	-10.791
▁திருக்க	-10.7913
▁நகரத்தை	-10.7915
▁language	-10.7916
ula	-10.7916
['	-10.7917
▁கிளர்ச்சி	-10.7919
▁ஏற்ப	-10.7919
சில	-10.7919
1971	-10.7922
லசு	-10.7922
▁வெட்டி	-10.7925
▁நிகழ்	-10.7926
ral	-10.7927
▁அடைய	-10.7929
▁அருண்	-10.7931
▁ஊடகங்கள்	-10.7932
▁செயற்கைக்கோள்	-10.7932
த்தல	-10.7934
▁அருள்மிகு	-10.7936
▁பெற்றுள்ள	-10.7937
▁நகரை	-10.794
இளையராஜா	-10.7941
▁ஈடுபாடு	-10.7942
Man	-10.7943
▁{}	-10.7944
ொளி	-10.7944
▁குழாய்	-10.7945
ித்த	-10.7947
▁பங்க	-10.7947
▁Library	-10.7951
▁தொல்காப்பியம்	-10.7953
▁ஊத்தங்கரை	-10.7956
▁ஈடுபட்ட	-10.7956
▁},	-10.796
▁எனப்படுவது	-10.7962
ds	-10.7964
ட்ச	-10.7964
ன்ட்	-10.7964
ஜு	-10.7967
▁காலகட்டத்தில்	-10.7967
▁வியட்நாம்	-10.7969
▁கண்ணன்	-10.7969
▁மற	-10.7973
ika	-10.7978
▁முறையை	-10.7979
▁குவி	-10.7979
▁per	-10.7981
▁நகரமும்	-10.7984
▁எட்	-10.7986
1998	-10.7988
▁திருச்சூர்	-10.7993
வண்ண	-10.8
▁நீரை	-10.8002
▁01	-10.8003
▁Tri	-10.8004
▁|*	-10.8005
லியோ	-10.801
▁விவரிக்க	-10.801
▁விடுதி	-10.801
▁மலைத்தொடர்	-10.8012
வல்ல	-10.8018
▁1933	-10.8022
ஸி	-10.8026
▁திருவனந்தபுரம்	-10.8029
▁சிலி	-10.8031
களிடையே	-10.8033
ப்பே	-10.8034
▁வரையறை	-10.8035
ks	-10.8036
▁தளி	-10.8038
▁உள்ளடக்க	-10.8038
▁சத	-10.8039
ஹோ	-10.804
தானி	-10.8043
திய	-10.8046
ward	-10.8056
car	-10.8056
▁<!--	-10.8056
▁அளித்த	-10.8057
▁பயணி	-10.8058
▁ஒருங்கிணைந்த	-10.8058
▁இடமாக	-10.8059
▁சன	-10.8062
கோள்	-10.8063
▁விரிவாக்க	-10.8064
பூரில்	-10.8065
▁தொழிலாளர்கள்	-10.8066
ku	-10.8068
yes	-10.8071
▁இலத்தீன்	-10.8071
க்ரா	-10.8071
▁ஏவுகணை	-10.8071
▁எக்சு	-10.8073
▁வினைக்கு	-10.8077
தமிழ்நாட்டிலுள்ள	-10.808
▁எதுவும	-10.8084
▁Art	-10.8091
▁நிகழ்ந்த	-10.8094
1976	-10.8095
uth	-10.8095
▁முதுநிலை	-10.8098
▁பக்கங்கள்	-10.8102
ங்கே	-10.8102
▁நிஷாதம்	-10.8103
ங்களுக்கான	-10.8103
▁மெட்ரோ	-10.8105
வைப்	-10.8105
110	-10.811
த்தூ	-10.8111
ST	-10.8113
▁டெல்லி	-10.8113
:11	-10.8114
▁கனி	-10.8116
ue	-10.8122
▁1,000	-10.8126
பரா	-10.8126
▁நடுவண்	-10.8126
▁August	-10.8128
பாலி	-10.8129
ீர்	-10.813
sion	-10.813
▁விவசாயம்	-10.8131
▁நீளமான	-10.8132
bit	-10.8133
▁விஜயா	-10.8133
*=	-10.8135
▁முதன்மையாக	-10.8136
ப்படுத்தப்பட்ட	-10.8138
▁so	-10.814
ராச	-10.8143
▁Sc	-10.8149
▁பரப்ப	-10.815
▁இசையமைப்பாளர்	-10.8153
ட்டே	-10.8155
சிறப்புக்	-10.8159
▁மொழித்	-10.8159
▁பொதுப்	-10.816
▁அறிவிக்கப்பட்ட	-10.816
ப்பாடு	-10.8164
▁கில்	-10.8167
▁சாய	-10.8168
▁Information	-10.817
▁மணல்	-10.8172
▁மாய	-10.8173
[1]	-10.8173
▁இடையிலான	-10.8173
▁சிறுகோள்	-10.8174
▁படேல்	-10.8174
▁மண்டலங்கள்	-10.8174
▁பஞ்சாபி	-10.8175
ாய்வு	-10.8176
▁நோய்கள்	-10.8178
▁தாசு	-10.8179
▁செரு	-10.8181
▁நேபாளம்	-10.8188
▁பிரதாப்	-10.8189
▁st	-10.8189
பத	-10.8191
▁கும்ப	-10.8191
தல	-10.8194
தெலங்காணா	-10.8195
மிக்க	-10.8195
▁சிம்பாப்வே	-10.8196
▁தேட	-10.8197
▁(2006)	-10.8197
▁சூப்பர்	-10.8198
▁இராகங்களில்	-10.82
eri	-10.8201
த்துறையில்	-10.8208
▁Kar	-10.8212
▁சரணாலயம்	-10.8216
ound	-10.8216
▁பாரி	-10.8219
:1	-10.822
▁Guide	-10.8221
▁குடியரசின்	-10.8222
-17	-10.8224
aga	-10.8225
▁வெற்றியாளர்	-10.8227
▁திரைப்படத்தை	-10.8228
▁தொடர்பாக	-10.8235
ானந்த	-10.8236
▁மங்கோலிய	-10.8237
லார்	-10.8239
▁சல்பைடு	-10.8243
▁ஆண்டும்	-10.8248
▁சங்கிலி	-10.8248
▁உதாரணமாக	-10.8251
▁நகரத்திலிருந்து	-10.8251
▁கணக்கிட	-10.8253
கிய	-10.8253
▁தண்டு	-10.8253
▁இருவரும்	-10.8255
▁1932	-10.8256
னிசு	-10.8258
▁வகைப்பாட்டியல்	-10.8259
▁October	-10.826
▁விஜயநகர	-10.827
▁ஓவியங்கள்	-10.827
▁வரையிலும்	-10.8271
▁பனை	-10.8271
நடு	-10.8272
2020	-10.8272
sch	-10.8275
▁சகோதரர்	-10.8275
க்காரன்	-10.8277
▁கூறி	-10.828
▁சமவெளி	-10.8281
▁கழிவு	-10.8281
சார	-10.8284
ரவ	-10.8285
▁உள்நாட்டு	-10.8285
ole	-10.8286
vo	-10.8286
▁Report	-10.8292
▁தெலங்காணா	-10.8294
▁மாநிலங்களில்	-10.8294
▁காணப்படுகின்றது	-10.8295
▁பாஸ்	-10.8298
▁கொண்டிருந்தது	-10.8298
▁கிராமப்புற	-10.83
▁நிரல்	-10.83
▁மேற்கொள்ள	-10.8301
kh	-10.8301
ராமன்	-10.8302
▁பகுதிகளிலும்	-10.8303
su	-10.8305
க்குப்பம்	-10.8306
ities	-10.8306
▁Col	-10.8308
யோன்	-10.8308
வக	-10.8316
▁பற்றியும்	-10.8316
மும்பை	-10.8317
hen	-10.8318
▁ஆஸ்திரேலியா	-10.8319
▁எடுத்துக்	-10.832
▁நடித்து	-10.8322
ேற்ற	-10.8323
▁ஒன்றியப்	-10.8325
▁format	-10.8325
மால்	-10.8329
சீன்	-10.8331
Ba	-10.8331
▁Un	-10.8335
PO	-10.8336
▁வணிகம்	-10.8338
▁நடக்கிறது	-10.8338
▁பொதுநலவாய	-10.8339
▁புலிகள்	-10.8339
thehindu	-10.8341
▁கொள்	-10.8341
▁ஆற்று	-10.8342
கொண்டா	-10.8343
▁அமைச்சரவையில்	-10.8347
▁As	-10.8347
▁லை	-10.8349
AT	-10.8349
▁Red	-10.835
▁நீதிபதிகள்	-10.8353
▁ஐய	-10.8354
▁</	-10.8355
▁இயற்பியலாளர்கள்	-10.8356
வாசி	-10.8358
▁ஹொ	-10.8358
▁நிகழ்த்த	-10.8364
வாக்க	-10.8364
▁94	-10.8365
ரியல்	-10.8368
▁ஓட	-10.8368
▁கட்டுப்பாட்டு	-10.8369
era	-10.837
ampatti	-10.8371
yn	-10.8372
கோன்	-10.8373
▁வங்காளம்	-10.8375
▁September	-10.8379
▁29,	-10.838
▁பயிரிட	-10.838
சியம்	-10.8381
▁செயல	-10.8382
▁மலேசியாவின்	-10.8383
▁when	-10.8386
▁ஆறாவது	-10.8386
▁கடற்	-10.8389
ச்சல்	-10.8389
▁Her	-10.8394
▁February	-10.84
▁வழக்கம்	-10.8401
▁நைட்ரேட்டு	-10.8402
▁சுருக்கமாக	-10.8403
▁உறுப்பினர்கட்சி	-10.8408
▁இருந்தால்	-10.8411
▁தூரம்	-10.8416
▁மனு	-10.8418
▁உணவுகள்	-10.842
book	-10.8421
▁கோப்பு	-10.8422
▁உடையது	-10.8423
யில	-10.8423
▁1953	-10.8424
ிறார்	-10.8428
▁செய்வது	-10.8428
ெழுத்து	-10.8429
▁பணியாற்றியவர்	-10.8431
!3	-10.8432
▁Book	-10.8434
▁சிவபெருமான்	-10.8434
▁(2007)	-10.8435
▁செயல்படுத்த	-10.8435
yan	-10.8437
▁ரிஷபம்	-10.8438
▁சந்த	-10.8444
▁பகுப்பாய்வு	-10.8444
▁ஒன்	-10.8447
▁தொண்டை	-10.8448
▁விழாவில்	-10.8452
▁இரி	-10.8454
ாகக்	-10.8456
▁இக்கனிமம்	-10.8457
▁பொருள்படும்	-10.8458
▁1928	-10.846
மாய்	-10.8463
த்துப்	-10.8467
▁இடைப்பட்ட	-10.8467
format	-10.8469
ாக்	-10.847
▁ஐதராபாத்	-10.847
▁இலட்சுமி	-10.8471
கதிர்	-10.8472
கங்கள்	-10.8473
▁80.09	-10.8478
▁நம்பி	-10.8478
▁மரபணு	-10.848
முடைய	-10.848
பெயர	-10.8482
▁வரையான	-10.8482
▁அருந்ததியர்	-10.8482
சிங்க	-10.8485
aw	-10.8485
▁துறைமுகம்	-10.8486
▁ஹார்	-10.8487
த்தன	-10.8488
tes	-10.8489
▁அறிவித்தது	-10.8491
:2013	-10.8492
▁பள்ளிவாசல்	-10.8493
▁நிறுவனமாகும்	-10.8494
▁நச்சு	-10.8497
▁Lu	-10.85
▁தமிழீழ	-10.8502
▁உளவியல்	-10.8502
▁கழகத்தினை	-10.8504
▁கற்பனை	-10.8504
▁விளையாட்டுக்கள்	-10.8504
▁எவ்வாறு	-10.8506
புற	-10.8506
|150	-10.8507
▁தாரா	-10.8507
▁ஆண்களின	-10.8509
▁பண்ணை	-10.851
▁அவு	-10.851
Te	-10.8511
▁விருதுகளும்	-10.8513
▁செயற்பாட்டாளர்	-10.8514
▁ஆக்சி	-10.8514
தமிழ்நாட்டைச்	-10.8514
▁கேரளாவில்	-10.8515
▁இடத்தைப்	-10.8516
▁நாள	-10.8518
வற்றை	-10.8519
சக்தி	-10.8519
▁வம்சத்தின்	-10.852
▁செய்தால்	-10.852
▁அறிவ	-10.852
▁3-	-10.8529
▁தோன்றுகிறது	-10.8531
ஸின்	-10.8531
▁துகள்	-10.8534
▁நரேந்திர	-10.8534
▁இயலும்	-10.8535
ect	-10.8536
வருக்கு	-10.8536
▁தொகுத்து	-10.8538
▁வகைகளில்	-10.854
த்திலேயே	-10.8541
ினாலும்	-10.8541
▁புள்ளிவிபரத்	-10.8541
▁வென்றது	-10.8549
த்திற்குத்	-10.8549
▁பரம	-10.8551
மூல	-10.8551
வாகும்	-10.8552
வாரா	-10.8553
▁நீர்வீழ்ச்சி	-10.8554
▁பட்டுக்கோட்டை	-10.8555
▁புத்தர்	-10.8556
men	-10.8557
ியா	-10.856
about	-10.8564
▁வழிமுறை	-10.8565
▁Pu	-10.8567
▁சமசுகிருத	-10.8568
ச்செ	-10.8569
▁இயற்கையான	-10.8569
▁பாடி	-10.8571
▁இராணிப்பேட்டை	-10.8571
▁கதாபாத்திரத்தில	-10.8571
காட்டி	-10.8579
▁கலக்கிறது	-10.8579
▁தொகைமதிப்பு	-10.8583
▁வணங்க	-10.8583
▁முழுமையான	-10.8584
▁முத்திரை	-10.8588
ரிடம்	-10.8589
▁ஓடி	-10.859
▁Fe	-10.8592
ny	-10.8595
தாவரவியல்	-10.8596
லியன்	-10.8596
▁கோயில்களில்	-10.8603
AM	-10.8603
▁தற்பொழுது	-10.8603
▁நிலக்கரி	-10.8603
Ja	-10.8606
▁முனி	-10.8606
தன	-10.8606
▁உயிரின	-10.8607
Fe	-10.8607
▁உருவாக்கினார்	-10.8608
▁சுந்தரம்	-10.8611
▁பில்லியன்	-10.8612
district	-10.8613
bl	-10.8613
▁கற்ற	-10.8616
▁180	-10.8616
▁கால்சியம்	-10.8618
▁பூஜை	-10.8619
▁Q	-10.862
:1979	-10.8621
மைப்பு	-10.8623
▁பண்ட	-10.8624
▁நிபுணர்	-10.8625
▁போன	-10.8626
டெர்பி	-10.8626
▁(2001)	-10.8629
ாவார்	-10.8631
hand	-10.8634
▁''	-10.8634
▁புதர்	-10.8637
▁உருது	-10.8637
▁திங்கள்	-10.8638
Kal	-10.8639
▁இருப்ப	-10.8639
ces	-10.8641
▁குழும	-10.8644
int	-10.8644
▁ஒருவன்	-10.8646
:1984	-10.8649
▁மொழியை	-10.865
▁மாற்றிய	-10.865
▁உலகக்	-10.865
▁இராகமாகிய	-10.8652
க்கடை	-10.8653
AL	-10.8653
▁ராபர்ட்	-10.8653
▁Inc	-10.8654
▁தேங்காய்	-10.8654
▁திறக்கப்பட்டது	-10.8656
oo	-10.8658
▁தோல்வி	-10.8658
qui	-10.8658
ும	-10.8659
▁தீவிர	-10.866
யாளர்கள்	-10.8661
▁நடக்கும்	-10.8667
வர்மன்	-10.8668
▁Gr	-10.8669
▁வேக	-10.867
▁வரிகளை	-10.8671
▁சொல்லும்	-10.8673
▁Island	-10.8675
oli	-10.8676
இருபத்தொர	-10.8677
▁உடல	-10.8677
▁எழுத்தாளரும்	-10.8678
▁here	-10.8679
▁எண்கள்	-10.8683
வரா	-10.8686
▁மிகக்	-10.8688
rowspan	-10.8688
▁Sch	-10.869
▁மகாபாரத	-10.8693
ted	-10.8693
▁பட்டியலிடப்பட்ட	-10.8693
▁ஈடுபட	-10.8694
▁(3	-10.8694
▁அமிலத்தை	-10.8695
lk	-10.8695
▁பயன	-10.8696
-6	-10.87
▁உலகளாவிய	-10.8701
▁Du	-10.8703
▁பவானி	-10.8705
த்தோடு	-10.8705
▁Ver	-10.8706
▁மோர்	-10.8708
கதை	-10.8711
▁கதாபாத்திரங்கள	-10.8718
▁ஆணை	-10.8722
ex	-10.8725
▁ரங்க	-10.8726
Location	-10.8726
▁நிறுவனர்	-10.8728
▁அசி	-10.8732
▁காசு	-10.8732
ves	-10.8735
வானது	-10.8735
:1981	-10.874
ook	-10.8747
ப்படலாம்	-10.875
Per	-10.8751
▁East	-10.8751
▁குடியேற்ற	-10.8752
▁நரசிம்ம	-10.8755
▁தோழி	-10.8756
ர்ஸ்	-10.8763
▁pre	-10.8773
:1990	-10.8773
1)	-10.8773
sp	-10.8775
▁திணை	-10.8776
dam	-10.8782
▁வல	-10.8782
4-	-10.8782
▁மனோ	-10.8783
▁பாரத	-10.8784
▁வழக்கில்	-10.8785
போன்	-10.8788
தொழில்	-10.8789
▁சாஸ்தா	-10.879
வள்ளி	-10.8791
▁மரியா	-10.8795
SH	-10.8795
ிற்காக	-10.8797
வாசல்	-10.88
க்காய்	-10.88
▁ஆறாகும்	-10.8803
▁தொடர்ச்சியாக	-10.8807
▁cell	-10.8808
▁கிரிக்கெட்	-10.8809
-5	-10.881
ear	-10.8811
▁பாதையில்	-10.8813
▁சவு	-10.8815
தெற்கு	-10.8816
▁தொழில்முறை	-10.8818
▁பயின்றுள்ளா	-10.8819
▁நகரங்களில்	-10.8821
▁மேம்பாடு	-10.8825
▁இணைவுக்கல்லூரி	-10.8825
▁வளர்ப்பு	-10.8827
▁இணையம்	-10.8829
▁Use	-10.8829
▁மறைந்த	-10.8829
மலா	-10.8829
▁அவர்களால்	-10.8829
ெழு	-10.883
▁அமைந்திருக்கும்	-10.8831
▁காதலி	-10.8833
மது	-10.8834
▁நடைபெற	-10.8834
BF	-10.8839
▁1-	-10.884
ாகிய	-10.8843
மசு	-10.8843
▁படிகங்களாக	-10.8844
▁ஆர்வலர்	-10.8845
▁காணொளி	-10.8847
▁சட்டப்பேரவைத்	-10.8847
▁சுய	-10.8848
▁கவிஞர்கள்	-10.885
▁சதுஸ்ர	-10.885
▁உணர்வு	-10.8851
▁மலேசியத்	-10.8851
கத்தில்	-10.8852
lin	-10.8859
▁போக	-10.8864
ித்து	-10.8864
வில	-10.8867
▁பரு	-10.8867
▁பதவிகள்	-10.887
▁ஒப்பந்தம்	-10.8871
▁ஆட்டம்	-10.8875
▁மேளமாகிய	-10.8875
▁கட்டுப்பாடு	-10.8876
தேனி	-10.8876
▁வரிசையில்	-10.8878
User	-10.8879
ck	-10.8879
▁செம்ப	-10.888
▁பெத்த	-10.8881
▁மதிப்ப	-10.8884
/1	-10.8885
▁out	-10.8886
▁விதமாக	-10.8886
▁>=	-10.8887
▁சாக்	-10.8888
▁தனிமங்கள்	-10.8889
ju	-10.8893
ise	-10.8895
▁படைத்துறை	-10.8895
ங்களிலிருந்து	-10.8896
மினி	-10.8896
பழ	-10.8898
▁பரிந்துரை	-10.8899
▁காப்பு	-10.8899
▁எளிதில்	-10.89
▁நவராத்திரி	-10.89
▁Lok	-10.8902
ப்பிள்ளை	-10.8902
ஜித்	-10.8905
▁திறந்து	-10.8906
ப்பதற்கு	-10.8909
▁வங்காளதேச	-10.8911
▁சண்முக	-10.8912
▁காளியம்மன்	-10.8918
:2010	-10.8919
▁நூறு	-10.892
lar	-10.8921
▁கிரிக்இன்ஃபோவில	-10.8926
▁ரீ	-10.8926
▁இடத்தை	-10.8926
▁பேசுகின்றனர்	-10.8926
ரண்	-10.8927
▁வன்முறை	-10.8928
ensis	-10.8928
hr	-10.8929
▁தேடி	-10.8929
மலையாள	-10.893
▁நூலாகும்	-10.8933
fer	-10.8937
▁தாஸ்	-10.8937
▁மீனா	-10.8938
▁ஆக்கங்கள்	-10.894
▁Bi	-10.8941
hl	-10.8943
▁வடிவத்தில்	-10.8946
உலோக	-10.8946
▁தேன்	-10.8948
filmography	-10.8951
▁Division	-10.8951
▁இராகத்த	-10.8951
▁Life	-10.8951
▁நாயனார்	-10.8952
tor	-10.8955
▁alt	-10.8955
ப்படுகிறார்	-10.8956
para	-10.8959
உருசிய	-10.8959
▁கவனம்	-10.896
▁தாம்	-10.8963
▁வாயில்	-10.8964
மலையாளத்	-10.8966
▁பிரிவுகளைக்	-10.8968
▁பெங்களூரு	-10.897
▁இலண்டன்	-10.8971
▁இதர	-10.8975
▁மாநகராட்சியின்	-10.8976
▁Cor	-10.8979
▁பூங்காக்கள்	-10.8982
▁வழங்கப்பட்ட	-10.8983
ல்ட்	-10.8984
IT	-10.8985
not	-10.8985
:0	-10.8987
▁example	-10.8991
ன்றி	-10.8992
▁கங்க	-10.8994
▁அறிஞர்கள்	-10.8994
▁சிகர	-10.8998
▁திர	-10.8999
▁பாலக்காடு	-10.9001
▁தக்க	-10.9001
▁ஆதிதிராவிடர்	-10.9001
▁1923	-10.9003
eo	-10.9005
▁வாசுதேவன்	-10.9005
▁ஆரிய	-10.9005
ங்கள	-10.9006
▁கீர	-10.9006
▁Association	-10.9008
▁1924	-10.9008
ec	-10.9011
களோடு	-10.9012
▁ராமர்	-10.9012
Su	-10.9013
▁புத்தகம்	-10.9014
1967	-10.9016
▁600	-10.9018
▁dis	-10.9018
▁பெயரிடப்பட்ட	-10.9019
பாக	-10.9019
ருவி	-10.9021
ors	-10.9021
ாக்க	-10.9022
▁இறக்கை	-10.9024
▁அப்போதைய	-10.9027
▁ஆத்மி	-10.9031
▁எசுத்தர்கள்	-10.9031
▁பொருத்த	-10.9036
இந்தி	-10.9038
சீர்	-10.9039
▁under	-10.9039
pha	-10.9042
அள்ளி	-10.9042
▁புற்றுநோய்	-10.9043
தருமபுரி	-10.9045
rit	-10.9048
ding	-10.905
▁படைத்த	-10.905
▁பழங்குடியினர்	-10.9051
▁சித்தாந்த	-10.9051
▁அங்கத்தினர்	-10.9053
▁சுரங்களும்	-10.9055
▁போட்டியிட்டார்	-10.9057
palayam	-10.9058
நகரம்	-10.9058
▁இருளர்	-10.9059
புத்த	-10.9064
லாய்	-10.9069
▁துளை	-10.9069
▁நாயர்	-10.9072
▁சமையல்	-10.9073
குறி	-10.9073
▁பட்டியல்கள்	-10.9076
▁ஏற்றுக்	-10.9079
தென்னாப்பிரிக்கா	-10.9081
▁நகர்ப்புற	-10.9081
▁பேரினமாகும்	-10.9081
▁பிடித்த	-10.9082
▁வளாகத்தில்	-10.9088
▁தொட்டி	-10.9089
▁ஆறாம்	-10.909
▁தேசியக்	-10.9092
▁கருத்த	-10.9093
▁99	-10.9095
மலேசியா	-10.9098
▁உலகத்	-10.9099
பான்	-10.91
▁விமானம்	-10.9102
▁இப்படி	-10.9103
▁அகற்ற	-10.9104
▁அவள்	-10.9107
▁பாய்ந்து	-10.9108
vu	-10.9109
▁இவரே	-10.9109
▁அணில்	-10.9109
des	-10.911
ையில்	-10.9112
cent	-10.9112
▁இயங்க	-10.9114
ple	-10.9116
ருவ	-10.9119
▁மெல்லிய	-10.9122
பது	-10.9123
▁பலகை	-10.9123
ates	-10.9124
▁இக்கிராமத்தின	-10.9124
▁தேவாலய	-10.9125
1962	-10.9127
ாகப்	-10.9128
cinesouth	-10.9129
ر	-10.9129
▁என்பதற்கு	-10.9131
▁நியமிக்கப்பட்ட	-10.9131
சஸ்	-10.9134
காசு	-10.9137
கண்டி	-10.9138
▁தெரிவிக்க	-10.9138
ரக	-10.9138
2002	-10.9139
-8	-10.914
▁Books	-10.914
▁முடியாது	-10.9142
▁தாண்டவ	-10.9142
க்குட்பட்ட	-10.9146
ps	-10.9149
டான்	-10.915
ார	-10.9151
▁மாசு	-10.9151
தாம்	-10.9152
1993	-10.9154
▁Delhi	-10.9155
▁பிறந்து	-10.9157
▁வளை	-10.9157
▁(2011)	-10.9157
par	-10.9158
▁பேராசிரியராக	-10.916
நு	-10.916
▁உணர்	-10.9166
▁வாழை	-10.9168
▁Asia	-10.917
▁கோழிக்கோடு	-10.9174
▁பெட்டிகள்	-10.9175
▁கோபுர	-10.9179
▁வரையில்	-10.918
▁வைகானச	-10.9181
▁Party	-10.9185
▁நட	-10.9185
▁வரிகள்	-10.9185
பாறை	-10.9189
ுவா	-10.9191
▁பிரிவுகளில்	-10.9192
▁சிறப்பான	-10.9192
▁செம்ம	-10.9193
▁பிக்	-10.9194
▁(%)	-10.9194
▁Published	-10.9195
▁சனிக்கிழமை	-10.9195
▁அமைத்து	-10.9199
▁வினையில்	-10.92
▁அடிமை	-10.92
▁நம்ப	-10.9202
▁இனமாகும்	-10.9204
ras	-10.9205
▁பாதுகாப்ப	-10.9206
▁தொலைநோக்கி	-10.9207
ீசு	-10.9207
▁கணவாய்	-10.921
▁இங்கிருந்து	-10.921
வையாகும்	-10.921
▁முடியாத	-10.921
டார்	-10.921
▁திரைப்படமான	-10.9214
இயற்பியல்	-10.9215
▁ஒன்றும்	-10.9215
▁அச	-10.9216
▁அணுக்கரு	-10.9222
பொருள	-10.9223
பூண்டி	-10.9223
▁நெடுஞ்சாலையில்	-10.9227
▁(17	-10.923
பாக்கித்தானியத்	-10.923
▁மேக்	-10.923
iz	-10.9231
▁Center	-10.9233
யிட்டு	-10.9233
▁ஒட்ட	-10.9235
ations	-10.9241
ush	-10.9244
">	-10.9251
▁ஆரஞ்சு	-10.9251
▁வளாக	-10.9252
▁ஆசு	-10.9253
ring	-10.9254
கசு	-10.9254
▁தொடக்கத்தில்	-10.9255
ஆண்	-10.9255
res	-10.9256
aka	-10.9256
▁source	-10.9257
த்தொகை	-10.9257
▁அவருடைய	-10.9259
▁கோலா	-10.9261
▁சாந்த	-10.9263
▁இலி	-10.9265
Bo	-10.9266
▁ஜெர்மனி	-10.9267
▁அண்மையில்	-10.9268
ுவார்	-10.9269
ஸ்டா	-10.927
▁காப்பகம்	-10.927
ாதி	-10.9272
▁மேனன்	-10.9273
▁அசிட்டேட்டு	-10.9274
▁97	-10.9277
பாத்	-10.9279
▁டெக்	-10.9279
▁வாசிக்க	-10.9285
▁Academy	-10.9285
லைப்	-10.929
▁tr	-10.929
▁film	-10.9291
பேர்	-10.9294
▁Ab	-10.9295
ஸா	-10.9296
▁வில்ல	-10.9298
▁எல்லைகளாக	-10.93
ym	-10.9301
▁விளிம்பு	-10.9302
▁விகிதமான	-10.9302
▁1900	-10.9304
▁குழந்தைகளுக்கு	-10.9305
▁Handbook	-10.9306
well	-10.9311
▁சூழ்நிலை	-10.9311
▁1926	-10.9312
▁புறநானூறு	-10.9312
▁105	-10.9314
ரர்	-10.9314
maps	-10.9314
tar	-10.9315
▁Web	-10.9315
▁ஆகியோருக்கு	-10.9317
ய்ய	-10.9318
▁கடு	-10.9321
▁விர	-10.9322
▁சீர்காழி	-10.9326
▁அஞ்ச	-10.9327
▁edition	-10.9327
▁கிரிக்	-10.9327
▁r	-10.9328
▁முசுலிம்	-10.9337
▁நகரமான	-10.9337
▁போற்ற	-10.9339
year	-10.9339
▁கையாள	-10.9341
▁விருதான	-10.935
த்தக்க	-10.9354
▁உரிமம்	-10.9354
'''	-10.9357
dr	-10.9357
▁பியூ	-10.9357
sta	-10.9358
▁கிழக்குப்	-10.9358
▁தடுக்க	-10.9359
▁சுழல்	-10.9362
▁Town	-10.9365
சாய்	-10.9365
▁அமைந்தது	-10.9366
▁மதி	-10.9366
als	-10.9366
▁அமர	-10.9369
▁அழைக்கப்படுகிறா	-10.937
▁செலவு	-10.937
▁சத்	-10.9371
▁species	-10.9371
ஸ்தி	-10.9375
▁மேற்கத்திய	-10.9381
▁தோட்டம்	-10.9383
னைப்	-10.9384
▁மாயா	-10.9386
▁நாற்	-10.9388
▁பாட்டு	-10.9392
▁பணிபுரிந்தார்	-10.9393
▁Bu	-10.9395
▁அரசாங்கம்	-10.9396
IS	-10.9396
▁ஒப்பந்தங்கள்	-10.9398
▁மதிப்பீடு	-10.9401
att	-10.9402
ஸ்ட	-10.9402
▁David	-10.9403
side	-10.9404
▁அசோக்	-10.9404
சல	-10.9405
NA	-10.9405
▁தீபம்	-10.9407
▁பாஜக	-10.9409
டங்க	-10.9413
amp	-10.9414
are	-10.9415
▁நாகர்	-10.9417
tu	-10.9418
▁ராஜன்	-10.9421
▁நம்	-10.9421
▁படித்தார்	-10.9424
▁தலைவரும்	-10.9428
▁முக்கியப்	-10.9428
nath	-10.9429
▁மூளை	-10.943
வாதம்	-10.943
னாய்	-10.944
▁Madras	-10.9441
ம்போ	-10.9442
பத்மசிறீ	-10.9442
▁மலைக்	-10.9442
ன்குளம்	-10.9445
▁கல்யாண	-10.9448
மிக்	-10.9449
▁நிறுவனமான	-10.9451
விக்	-10.9459
கியா	-10.9461
ப்புற	-10.9461
▁பல்ல	-10.9462
▁காட்	-10.9463
▁ஏழாம்	-10.9464
▁துருவ	-10.9464
▁Source	-10.9465
space	-10.9467
▁Qu	-10.9469
▁முதன்முதலாக	-10.947
▁Publications	-10.947
pan	-10.947
▁91	-10.9471
:1982	-10.9472
த்துக்கான	-10.9474
OR	-10.9475
cus	-10.9476
▁ஆங்கிலத்	-10.9479
▁இனமாக	-10.948
செட்டி	-10.9481
▁ஆதரவு	-10.9481
:1969	-10.9482
வியலில்	-10.9483
தேவன்	-10.9484
▁1,2	-10.9485
▁கோரி	-10.9486
வைத்	-10.9486
படை	-10.9487
ile	-10.9488
▁135	-10.949
ack	-10.9496
villages	-10.9496
▁செவ்வாய்	-10.9497
▁ஆற்காடு	-10.9497
▁பெய்	-10.9501
▁வேப்ப	-10.9504
▁அமைச்சகம்	-10.9508
▁பிரம்மா	-10.9511
base	-10.9511
தாய்	-10.9513
▁திற	-10.9515
க்கண	-10.9515
ந்தர	-10.9515
▁126	-10.9516
பாட	-10.9516
-10	-10.9517
▁காடுகளில்	-10.9517
காந்த	-10.9518
▁விரு	-10.9522
anda	-10.9522
களினால்	-10.9523
caption	-10.9523
சிலிக்கேட்டு	-10.9523
▁உரோம	-10.9524
னேரி	-10.9524
▁தப்பி	-10.9525
▁அரசினர	-10.9532
Lo	-10.9533
ther	-10.9534
:1970	-10.9534
▁சப்பானிய	-10.9535
▁section	-10.9536
▁கண்ணி	-10.9537
▁குள்ள	-10.9537
▁add	-10.9538
▁இந்நகர	-10.9538
இராசத்தான்	-10.9539
▁கைப்பற்ற	-10.954
கம	-10.9542
▁தலைமையகமாக	-10.9544
ாடி	-10.9545
▁வேறுபாடு	-10.9545
▁பாலியல்	-10.9547
▁else	-10.9549
க்குக்	-10.9552
▁125	-10.9553
▁இம்மாவட்டத்தின்	-10.9554
▁சந்தன	-10.9554
னேட்டு	-10.9555
விடும்	-10.9557
vin	-10.956
▁மாரி	-10.956
ally	-10.9566
▁மந்த	-10.9567
▁என்பவரின	-10.9568
▁03	-10.9569
▁இடைய	-10.9569
▁history	-10.957
▁இம்மாவட்டம்	-10.957
▁தெய்வம்	-10.957
ix	-10.9571
▁இருக்கின்றன	-10.9571
▁2012.	-10.9572
▁அமோனியம்	-10.9572
▁பிலிம்பேர்	-10.9573
°	-10.9576
▁மன்	-10.9576
▁மீற்றருக்கு	-10.9577
▁பகவதி	-10.9577
▁தண்ணீரில்	-10.9579
▁(2008)	-10.9579
▁நிகழும்	-10.9581
கீழ்	-10.9582
▁பருவம்	-10.9584
▁அறிந்த	-10.9587
▁ஒளிப்பட	-10.9591
▁கொல்லம்	-10.9591
▁பட்டியலிட	-10.9594
▁தயாரித்து	-10.9595
▁கவலை	-10.9596
▁நின்ற	-10.9596
▁மணிப்பூர்	-10.9598
▁மீட்டர்கள்	-10.9599
▁கோப	-10.9602
▁புரிந்த	-10.9605
▁h	-10.9605
▁சொல்லி	-10.9606
▁294	-10.9606
ரத்தினம்	-10.9606
▁1925	-10.961
திரி	-10.961
▁காட்டுகிறது	-10.961
▁உடலில்	-10.9611
கென்ட்	-10.9611
வர்ண	-10.9615
▁இந்திர	-10.9615
▁ஆத்தூர்	-10.9615
▁ஆய்வாளர்	-10.9616
கிருஷ்ண	-10.9616
▁93	-10.9616
ற்றை	-10.9617
▁கதாப்பாத்திர	-10.9618
▁தொகுதிகளின்	-10.9619
▁குற்றம்	-10.962
▁இடைவெளி	-10.9621
வெப்ப	-10.9621
▁சேத	-10.9623
▁மங்கள	-10.9623
வங்காளதேச	-10.9625
▁குமர	-10.9626
ative	-10.9629
▁British	-10.963
லிசு	-10.963
she	-10.9631
log	-10.9633
▁தாங்கி	-10.9634
▁வடிவங்கள்	-10.9637
nagar	-10.9637
▁1919	-10.964
▁அறி	-10.9641
▁NH	-10.9641
மலர்	-10.9642
பறவை	-10.9642
▁ஆக்	-10.9646
▁விருதுகளை	-10.9647
▁Te	-10.9647
uch	-10.9651
asp	-10.9652
▁துர்க்கை	-10.9659
3),	-10.9662
▁சட்டத்தின்	-10.9664
▁தகவல்களை	-10.9664
ign	-10.9666
ிற்கான	-10.9667
▁தனக்கு	-10.9668
▁அருள	-10.967
gra	-10.9675
▁உடு	-10.9677
ங்க்	-10.9677
▁மீள்	-10.968
▁மும்பையில்	-10.9681
▁Ad	-10.9682
:2015	-10.9683
▁பிசு	-10.9684
▁North	-10.9685
▁பிறப்பிடமாக	-10.9685
other	-10.9686
▁வழக்கறிஞர்	-10.9689
▁கத	-10.9691
▁Va	-10.9691
வண	-10.9692
சங்கப்	-10.9693
hal	-10.9693
▁0.1	-10.9695
95%	-10.9696
ோடி	-10.9701
▁நியூசிலாந்து	-10.9702
▁we	-10.9702
▁பிரான்சின்	-10.9704
வலது	-10.9706
▁1921	-10.9709
▁அமர்	-10.971
|50	-10.9711
▁சூறாவளி	-10.9711
மனி	-10.9711
பாக்கம்	-10.9712
MA	-10.9712
▁ஹு	-10.9713
ன்னி	-10.9714
▁1911	-10.9715
▁மார்வெல்	-10.9716
▁மண்டலத்தின்	-10.9716
▁ஓடும்	-10.9716
▁நீளமும்	-10.9717
▁ஆர்வம்	-10.9718
tain	-10.9718
▁ஆசிரிய	-10.9721
▁போட	-10.9723
▁உயிர	-10.9725
சித்த	-10.9727
▁சேர்க்கை	-10.9729
anti	-10.973
▁சரியான	-10.973
▁அடுக்க	-10.9731
▁ஐதரோ	-10.9731
▁இவர்களுக்கு	-10.9733
▁1941	-10.9733
▁Online	-10.9734
▁இயக்கத்தின்	-10.9735
▁ஊர	-10.9735
க்கோள	-10.9737
▁சுந்தர்	-10.9737
bel	-10.9738
▁சக்ரவர்த்தி	-10.974
▁கோட்	-10.9741
▁category	-10.9741
▁பிக்சர்ஸ்	-10.9742
நாயக	-10.9742
யார்க்சையர	-10.9743
▁02	-10.9745
▁குடும்பத்தின்	-10.9746
▁ஆய	-10.9746
▁பழங்குடிகள்	-10.9747
▁US	-10.9747
பாரா	-10.9749
▁Cu	-10.9751
lt	-10.9751
▁சான்று	-10.9751
▁சிறப்புத்	-10.9751
▁பூனை	-10.9751
▁சராசரியான	-10.9753
▁4-	-10.9755
mod	-10.9761
▁ஜனநாயக	-10.9763
யிலை	-10.9764
▁அறிவிக்க	-10.9765
meta	-10.9766
▁மகாத்மா	-10.9767
▁நிலவரப்படி	-10.9767
▁சௌத்ரி	-10.9768
▁மாகாணங்கள்	-10.9768
▁ஊதா	-10.9769
ந்தே	-10.9769
▁தயாரிக்கப்பட்ட	-10.9769
இரா	-10.9775
ந்தல்	-10.9775
▁நிலையமாகும்	-10.9778
▁வட்டங்களில்	-10.9779
upright	-10.9783
▁தொகையானது	-10.9784
▁வைக்கப்பட்டது	-10.9786
துடுப்பாட்ட	-10.9787
வர்களின்	-10.9789
▁முல்லை	-10.979
▁அர்ப்பணிக்க	-10.9795
▁என்றழைக்க	-10.9802
▁பிரதம	-10.9802
▁Ph	-10.9803
▁வாழ்கின்றன	-10.9805
ொரு	-10.9806
▁ரோம	-10.9807
▁நெதர்லாந்து	-10.9811
கண	-10.9812
▁இப்பகுப்பில்	-10.9822
▁மீள	-10.9823
▁கவு	-10.9824
▁மாதா	-10.9826
▁கோடைக்கால	-10.9827
▁செய	-10.983
▁பரப்பும்	-10.9832
▁முதலான	-10.9832
1985	-10.9833
▁மீன்பிடி	-10.9835
▁சீனிவாச	-10.9839
புது	-10.984
▁வித	-10.9842
▁குழுமம்	-10.9842
ாலி	-10.9845
▁முக்	-10.9846
▁இசுலாமியர்கள்	-10.9847
▁30,	-10.9849
ஒடிசா	-10.985
village	-10.985
ப்பதற்காக	-10.985
▁ரகுமான்	-10.985
venine	-10.9851
▁டாலர்	-10.9852
▁இவ்வினை	-10.9852
ந்தது	-10.9854
▁ஆய்வுக்	-10.9854
பிரெஞ்சு	-10.9855
sar	-10.9855
▁விக்டோரியா	-10.9857
பட்டினம்	-10.9859
SI	-10.986
▁நர்	-10.9861
▁சித்தர்	-10.9862
sing	-10.9862
onefi	-10.9864
▁பிழை	-10.9865
▁பேரரச	-10.9866
▁சாரா	-10.9866
▁நாத்	-10.9869
▁நொதி	-10.9871
கோண	-10.9873
Kan	-10.9873
ோரா	-10.9874
rus	-10.9874
▁இந்தித்	-10.9876
▁கலைகள்	-10.9878
ெடுக்க	-10.9878
▁குறுக்கே	-10.9881
▁வித்யா	-10.9882
ou	-10.9882
▁சேர்மங்கள	-10.9886
▁Pe	-10.9887
நாயக்க	-10.9887
▁On	-10.9889
▁ஓடு	-10.989
தொலைக்காட்சி	-10.9891
1!4	-10.9896
▁பந்தாட்ட	-10.9898
▁ஆணைய	-10.9899
▁பெருக்க	-10.99
▁பகு	-10.99
க்களும்	-10.99
▁சரண்	-10.9901
▁ஊசி	-10.9905
ship	-10.9906
ome	-10.9906
▁பாப்	-10.9908
▁அனைவரும்	-10.9908
▁கருதப்படுகிறார்	-10.9909
▁1910	-10.9911
▁வரைகதை	-10.9911
புரோமோ	-10.9913
▁கொங்கு	-10.9914
னூ	-10.9915
▁Ed	-10.9918
▁குறைந்தது	-10.9919
▁இதழ	-10.9919
த்துக்கும்	-10.9923
ola	-10.9925
▁மெத்தில்	-10.9925
னிடம்	-10.9925
கினி	-10.9926
▁Ste	-10.9926
▁சரஸ்வதி	-10.9926
கானி	-10.9928
ேசுவர்	-10.9929
▁system	-10.9931
:1985	-10.9933
▁விசாரணை	-10.9933
▁Ge	-10.9933
▁ஆளுநராக	-10.9934
gam	-10.9934
▁மேக	-10.9934
▁தொழில்துறை	-10.9937
▁சேமிக்க	-10.9937
ந்தூர்	-10.9944
▁விளங்கியது	-10.9944
▁பிரபலமாக	-10.9945
▁செருமானிய	-10.9946
இந்தோனேசிய	-10.9948
▁சமநிலை	-10.9949
avan	-10.9951
▁கினி	-10.9952
▁மேலாக	-10.9952
ுள்	-10.9953
▁கறுப்பு	-10.9955
கழ	-10.9955
லகு	-10.9958
▁மைக்கேல்	-10.9961
ரென்	-10.9961
▁ஆனாலும்	-10.9962
▁வளிமண்டல	-10.9964
▁சமிதி	-10.9965
800	-10.9966
▁பெறுகிறது	-10.9966
▁ஈர்ப்பு	-10.9967
▁கலப்பு	-10.9968
▁ed	-10.9968
▁இத்தொகுதியின	-10.9969
ரிஸ்	-10.997
▁ஆட்சிக்	-10.9973
▁வலதுகை	-10.9974
▁இனக்குழுக்கள்	-10.9975
▁காக்க	-10.9977
▁சுரேஷ்	-10.9978
▁அன்ப	-10.9978
{	-10.998
கிர்	-10.9982
▁வெளிநாட்டு	-10.9983
▁பார்த்து	-10.9984
▁வறண்ட	-10.9989
▁அழைக்கப்பட்ட	-10.999
▁பிடாரி	-10.9993
▁கண்டுபிடித்தார்	-10.9994
▁Units	-10.9995
▁ரயில்வே	-10.9997
▁மலைய	-10.9998
▁பயன்பாட்டில்	-10.9999
▁அருவிகள்	-11.0001
▁சூரியனை	-11.0004
▁மொழியின்	-11.0007
பனி	-11.0008
தேவ்	-11.001
str	-11.0012
▁சீர்திருத்த	-11.0016
-15	-11.0016
assembly	-11.0017
▁சால்	-11.0017
Housing	-11.0017
▁ஹூ	-11.0017
:1960	-11.0017
▁Er	-11.0018
வதாக	-11.0019
கொட்டாய்	-11.0022
▁சங்ககாலப்	-11.0022
▁செம்	-11.0024
▁அளிக்க	-11.0028
-7	-11.003
▁தொகுப்பில்	-11.0031
▁நகரியம்	-11.0032
ுப்	-11.0036
நாயகி	-11.0037
▁துருக்கிய	-11.0042
▁பருத்தி	-11.0042
▁விரிகுடா	-11.0046
▁module	-11.0046
▁கல்கி	-11.0047
▁சவுத்ரி	-11.0049
யாவின்	-11.005
▁சிரி	-11.005
▁பின்னணிப்	-11.005
▁string	-11.0051
▁புதினங்கள்	-11.0055
▁கேஎல்	-11.0056
▁கிங்	-11.0058
king	-11.0062
▁ஒழுங்கு	-11.0062
▁இராணி	-11.0063
யாங்	-11.0064
▁வாகனம்	-11.0067
பிளேயர்	-11.0067
▁சீக்கிய	-11.0068
:1978	-11.0068
மறை	-11.0069
PA	-11.0071
kudi	-11.0071
▁கடலோர	-11.0074
▁acid	-11.0075
▁தலைநகரங்கள்	-11.008
இராணிப்பேட்டை	-11.0082
▁175	-11.0082
▁தினமணி	-11.0083
▁General	-11.0084
movie	-11.0087
▁கட்டற்ற	-11.0087
ார்கள்	-11.0089
▁முடிச்சு	-11.0093
:1986	-11.0094
▁vol	-11.0096
▁Ru	-11.0097
லாக்	-11.0098
லீன்	-11.0098
தோடு	-11.0098
wal	-11.0101
பிடி	-11.0104
put	-11.0104
CS	-11.0105
க்கிர	-11.0106
ரவு	-11.0106
▁முன்னிலையில்	-11.0107
▁Ti	-11.0109
யர்கள்	-11.0109
padding	-11.0111
ics	-11.0114
▁பாண்டியர்	-11.0117
▁குழந்தைகளின்	-11.0117
FF	-11.0119
▁உணவாக	-11.012
▁சப்த	-11.0121
வினால்	-11.0123
▁Par	-11.0126
▁முடித்த	-11.0126
▁தாது	-11.0126
▁யோகி	-11.0129
▁1922	-11.0129
▁குளிர்	-11.013
▁le	-11.0132
:1964	-11.0133
Members	-11.0136
▁அலைவரிசைகள்	-11.0138
வேலி	-11.0138
0.5	-11.0138
ological	-11.0138
▁after	-11.0139
ண்ணி	-11.0144
▁தோன்ற	-11.0144
dra	-11.0146
கண்	-11.0147
▁குல்	-11.0147
▁சீனாவில்	-11.0148
▁யாத்திரை	-11.0149
ses	-11.015
▁சுற்றுப்	-11.0153
▁எதிர்மின்	-11.0154
மேட்டு	-11.0158
▁வங்காளதேசத்	-11.016
Bi	-11.0163
▁பூதேவி	-11.0164
▁பிரிக்க	-11.017
▁வான்படை	-11.017
▁பத்தாம்	-11.017
▁மகாதேவன்	-11.0171
▁உண்ண	-11.0171
▁West	-11.0172
▁பகுதிகளைக்	-11.0173
mla	-11.0175
anga	-11.0175
▁வங்காளதேசம்	-11.0176
▁வெளிர்	-11.0176
▁உரையாடல்	-11.0178
win	-11.0179
▁கதாபாத்திர	-11.0181
▁குமாரி	-11.0182
ாங்க	-11.0183
மகா	-11.0183
த்ர	-11.0186
வங்காளதேசத்	-11.0187
▁ரிச்சர்ட்	-11.0187
▁கடுமையான	-11.0187
பாக்கித்தான்	-11.0187
▁கவுன்டி	-11.0187
ஆண்டுகள்	-11.0188
▁போராட்டம்	-11.0188
▁கண்டறிந்த	-11.0191
jan	-11.0193
▁அளவுக்கு	-11.0194
▁பான்	-11.0195
DC	-11.0196
கொள்	-11.0197
▁288	-11.0198
சசு	-11.0198
த்தின	-11.0199
சிங்கப்பூர்	-11.0199
:1971	-11.02
▁காட்டி	-11.0201
▁பொறுத்து	-11.0206
▁பாப்பா	-11.0211
▁ஏற்க	-11.0213
ora	-11.0214
▁பாபநாசம்	-11.0216
ப்பாட்டு	-11.0219
▁சூழலில்	-11.0219
▁தீவுகளின்	-11.0221
▁பரத	-11.0225
▁இயல்பு	-11.0226
மண்	-11.0227
மனோரமா	-11.0227
இமாச்சலப்	-11.0227
▁தென்ன	-11.0228
▁சல	-11.0229
▁அணிக்கு	-11.023
Mar	-11.0231
▁செல	-11.0231
▁விளையாடி	-11.0232
த்தீ	-11.0232
▁கரடி	-11.0234
▁மூலிகை	-11.0235
▁ராஜஸ்தான்	-11.0235
கிறார்	-11.0236
bb	-11.0236
▁ஸ்டார்	-11.0239
▁வேண்டி	-11.024
பிற	-11.0242
▁Rao	-11.0242
▁விடக்குறைவு	-11.0245
▁மேல்நிலைப்	-11.0246
▁(2003)	-11.0247
ரோன்	-11.0249
▁Dam	-11.025
வதால்	-11.025
0000	-11.0251
▁இனிப்பு	-11.0253
ture	-11.0255
▁அரூர்	-11.0255
▁தயாரிப்ப	-11.0256
▁பாதுகாக்கப்பட்ட	-11.0256
CC	-11.0257
▁அவர்களுக்கு	-11.0259
puram	-11.026
▁புள்ளிகள்	-11.0263
▁பாலைவன	-11.0263
▁இச்ச	-11.0265
சியே	-11.0265
IN	-11.0266
▁சாலி	-11.0266
கேம்பிரிச்சு	-11.0273
▁சாகர்	-11.0274
▁El	-11.0274
▁அடிக்கடி	-11.0274
▁சுற்றுலாப்	-11.0276
▁சேர்த்த	-11.0276
▁விளையாடிய	-11.0277
len	-11.0278
ஸ்டன்	-11.0279
▁புறம்	-11.0283
கன	-11.0285
▁துறையினர்	-11.0287
▁கானா	-11.0288
▁மாவட்டத்	-11.0288
▁விசய	-11.0289
ப்பட்டனர்	-11.0289
ela	-11.029
▁தொடரின்	-11.0291
▁இனப்பெருக்க	-11.0292
▁மாநிலங்களின்	-11.0296
▁சிம்	-11.0297
▁இதழின்	-11.0298
▁முதலாக	-11.03
▁சிட்டி	-11.03
▁Part	-11.0302
▁வைக்கப்பட்ட	-11.0302
ீஸ்வர	-11.0303
▁கட்டட	-11.0304
குறிச்சி	-11.0305
▁உலா	-11.0305
▁பிடித்து	-11.0309
கடல்	-11.0312
▁அழுத்தம்	-11.0314
α	-11.0315
▁கட்டிய	-11.0315
▁தொலைவு	-11.0315
▁மென்பொருட்கள்	-11.0317
▁மரண	-11.0318
▁நீரினால	-11.0319
கிறான்	-11.032
▁தலைமையிட	-11.032
▁கிர்	-11.032
▁என்பதன	-11.0323
எசுப்பானிய	-11.0326
▁விபரம்	-11.0327
முகம்	-11.0328
கான	-11.033
▁Edition	-11.0331
▁சௌந்தரராஜன்	-11.0331
Am	-11.0333
▁160	-11.0333
▁time	-11.0333
▁வருகின்றார்	-11.0336
▁தலைநகராக	-11.0336
▁Image	-11.0336
pet	-11.0339
ren	-11.0342
மக	-11.0344
amba	-11.0344
map	-11.0346
▁பாலூட்டி	-11.0347
▁வயல்	-11.0349
▁மீன	-11.035
▁224	-11.0352
ban	-11.0352
▁கோடை	-11.0353
▁ஆங்கிலேயர்	-11.0356
ந்திய	-11.0357
▁You	-11.0361
AS	-11.0361
▁இன்னொரு	-11.0362
▁நாளை	-11.0365
▁உள்ளே	-11.0365
▁மக்கள்தொகையும்	-11.0366
▁துரை	-11.0368
▁நிலத்தினால	-11.0368
▁version	-11.0372
▁கேட்ட	-11.0374
▁வெளிப்படுத்த	-11.0376
கோலா	-11.0377
களா	-11.0378
முனி	-11.0379
own	-11.0379
புல்	-11.0381
▁தமிழ்க்	-11.0381
▁புத்தகங்கள்	-11.0383
▁செந்தில்	-11.0384
▁கணவர்	-11.0384
ங்கம்	-11.0388
▁அமைந்து	-11.0389
▁தலைநகர	-11.0389
let	-11.0389
script	-11.0391
இத்தாலிய	-11.0394
▁அம்பா	-11.0395
▁கூறிய	-11.0395
▁படிமங்கள்	-11.0396
rat	-11.0397
▁வஞ்சி	-11.0397
▁கண்ணதாசன்	-11.0398
▁பிடிக்க	-11.0398
கின்ற	-11.0398
▁கட்டமைப்பை	-11.0399
▁1908	-11.0401
▁வாழ்வ	-11.0402
▁அமரன்	-11.0405
▁டூ	-11.0409
form	-11.041
▁|}	-11.0411
▁சுவா	-11.0412
US	-11.0412
▁du	-11.0413
▁ஆரி	-11.0415
▁ஏற்றுக்கொள்ள	-11.0418
▁Secretariat	-11.0419
கனிம	-11.0424
▁வழு	-11.0428
aff	-11.043
nan	-11.0433
▁அமினோ	-11.0433
▁வரையறுக்க	-11.0433
pen	-11.0434
get	-11.0435
▁ஓம்	-11.0435
▁லோக	-11.044
▁கள்ளி	-11.044
yo	-11.0444
▁இறுதியாக	-11.0444
▁அய்ய	-11.0445
▁வடி	-11.0446
▁Density	-11.0448
dinamalar	-11.0448
▁கணக்கெடுப்பில்	-11.0448
கார்பாக்சிலிக்	-11.0448
ann	-11.045
ok	-11.0453
▁செய்வதன்	-11.0453
las	-11.0458
▁05	-11.0459
▁பணிபுரிந்த	-11.046
ori	-11.0461
மீது	-11.0461
காசி	-11.0463
செருமானிய	-11.0464
ean	-11.0467
▁இடி	-11.0467
நாள்	-11.0468
rom	-11.0469
▁நிறைவுகள்	-11.0469
:1972	-11.0475
▁அன்பு	-11.0476
▁காரணாகம	-11.0478
▁டான்	-11.0478
ஜர்	-11.0478
▁வளர்ந்து	-11.0478
▁117	-11.0478
த்திற்குப்	-11.0478
▁மாடு	-11.0479
Par	-11.048
விடம்	-11.048
▁பிரியா	-11.0485
லிடே	-11.0488
▁அதிகமாகும்	-11.0488
cer	-11.0491
▁அவி	-11.0495
க்கீ	-11.0495
▁அலைவரிசை	-11.05
ray	-11.05
ங்கரை	-11.05
▁புதை	-11.0504
bha	-11.0505
dan	-11.0506
▁வாரியம்	-11.0506
He	-11.0508
▁கடன்	-11.0508
▁நம்பியார்	-11.0508
மன்ற	-11.0509
▁காது	-11.051
ila	-11.051
nar	-11.0511
▁குடும்பங்களும்	-11.0516
▁முஸ்லிம்கள்	-11.0516
uri	-11.0516
▁your	-11.0518
/2011	-11.0519
கோர்	-11.052
Ta	-11.052
▁நிலவு	-11.052
▁வரலாற்றை	-11.0521
content	-11.0524
▁பட்டா	-11.0525
▁வால	-11.0525
▁243	-11.0529
cc	-11.053
ரேட்டு	-11.0532
Ph	-11.0533
▁மொழிக்	-11.0534
▁கிறிஸ்தவ	-11.0535
:1989	-11.0536
▁உத்திரம்	-11.0538
tur	-11.0538
▁(2002)	-11.0538
▁மாணிக்க	-11.0539
▁அமிர்த	-11.0541
▁Cha	-11.0541
▁எழுப்ப	-11.0541
த்திறன்	-11.0541
▁கரிமச்	-11.0543
▁Station	-11.0546
kal	-11.0546
▁கன்ன	-11.0547
Be	-11.0547
▁முள்ள	-11.0549
▁நோக்கில்	-11.0549
யாக்க	-11.055
▁எடுத்துச்	-11.055
▁அம்ச	-11.0552
▁உலகக்கோப்பை	-11.0553
▁31,	-11.0554
▁சட்டக்	-11.0555
முதன்மை	-11.0555
▁கருவறை	-11.0555
▁tri	-11.0556
▁வழக்கறிஞராக	-11.0556
▁Ke	-11.0556
▁சாகிப்	-11.0557
▁பிரபஞ்ச	-11.0559
▁School	-11.0561
காட்டு	-11.0563
IC	-11.0564
ius	-11.0566
▁1913	-11.0569
▁மருத்துவமனையில்	-11.0569
▁into	-11.0572
▁வளைகுடா	-11.0575
▁உம்	-11.0576
▁Sp	-11.0578
வலை	-11.0579
Portal	-11.0584
ஜம்மு	-11.0586
ஹர்	-11.0586
▁அயர்லாந்து	-11.0587
களு	-11.0587
▁கடற்கரையில்	-11.0589
நாட்ட	-11.0592
▁box	-11.0592
▁மலைகளில்	-11.0593
ேஸ்வரி	-11.0594
சாக்	-11.0595
▁கணக்க	-11.0596
▁(2012)	-11.0598
don	-11.0599
▁நீரிணை	-11.06
ES	-11.0601
மையால்	-11.0603
லிஸ்	-11.0605
▁மாறிலி	-11.0605
ments	-11.0606
▁முதல	-11.0607
Val	-11.0608
▁அனி	-11.0608
▁வெடி	-11.0608
தீவு	-11.0609
ீர	-11.0609
▁main	-11.0609
▁By	-11.0609
/10	-11.061
▁மனிதன்	-11.0611
▁over	-11.0612
மய	-11.0614
▁இப்பறவை	-11.0616
யடி	-11.0616
ப்பதி	-11.0617
ox	-11.0619
mas	-11.0622
வராவார்	-11.0622
▁their	-11.0625
▁அயோடின்	-11.0626
▁Religion	-11.0626
▁Subdivision	-11.0626
▁ஆக்கைவ்	-11.0626
▁ஜேர்சி	-11.0626
▁ஊர்வன	-11.0626
செய்	-11.0626
பீனால்	-11.0627
kk	-11.0633
னையும்	-11.0634
▁பகுதிகளுக்கு	-11.0636
கோவா	-11.0637
▁1927	-11.0638
▁கியூ	-11.0638
▁மத்தியில்	-11.064
▁களி	-11.0642
▁Film	-11.0643
ett	-11.0645
▁தளங்கள்	-11.0649
▁விரல்	-11.0651
திரிபுரா	-11.0651
▁சடங்கு	-11.0652
ராஜபுரம்	-11.0653
▁William	-11.0653
▁user	-11.0654
▁அருகிய	-11.0655
ل	-11.0656
சோல்	-11.0656
▁இரை	-11.066
▁சல்பேட்டு	-11.066
▁இணையதளத்தில்	-11.066
லஸ்	-11.066
view	-11.0661
மரம்	-11.0662
நேர	-11.0663
▁Air	-11.0664
▁வழித்தடத்தில்	-11.0664
▁விரி	-11.0665
▁Map	-11.0666
யர	-11.0667
லாஸ்	-11.0668
▁இக்கல்லூரியில்	-11.0668
oth	-11.0669
▁content	-11.0669
▁படிமம்	-11.0671
▁மகேந்திர	-11.0672
▁திருவா	-11.0674
கத்தின்	-11.0674
н	-11.0675
▁Robert	-11.0675
▁அடங்கிய	-11.0675
நீல	-11.0676
▁உண்மையான	-11.0676
▁ஷி	-11.0679
ுவதற்கும்	-11.0679
vent	-11.0679
▁மல்	-11.068
▁up	-11.0681
ஸ்டி	-11.0681
க்கட	-11.0682
%;	-11.0684
pu	-11.0684
र	-11.0685
▁நடிக்க	-11.0685
▁பௌ	-11.0685
▁இயற்பெயர்	-11.0685
▁பதினாறாம்	-11.0686
▁ஆன்மீக	-11.0686
▁தாமஸ்	-11.0687
▁மடம்	-11.0687
▁மான	-11.0688
▁பணியாற்றுகிறார்	-11.0688
▁குறைக்க	-11.0689
▁பாலை	-11.069
▁வாட்	-11.069
▁முதலியார்	-11.0693
▁நிகழ்பட	-11.0693
▁2014-	-11.0693
ுங்கள்	-11.0694
▁மகனாகப்	-11.0696
▁காலப்பகுதியில்	-11.0696
மைடு	-11.0696
நோய்	-11.0697
ையன்	-11.0704
இரண்டாம்	-11.0706
ாம்பட்டி	-11.0706
▁எட	-11.0707
dec	-11.0708
▁மெர்	-11.071
▁அமைச்சரவை	-11.0712
▁உயிரிகள்	-11.0712
▁கிடைத்தது	-11.0712
▁கம்பி	-11.0713
▁(2010)	-11.0714
▁மந்திர	-11.0715
▁நீதிமன்றத்தின	-11.0715
▁பேண	-11.0716
less	-11.0716
▁வளர்	-11.0717
▁துண்டு	-11.0717
▁ஈழத்து	-11.0718
▁அமைச்சகத்தின்	-11.0718
▁ca	-11.0719
▁being	-11.072
▁nil	-11.0724
▁சகா	-11.0726
▁Ram	-11.0727
0°	-11.073
▁240	-11.0731
▁அலகுகள்	-11.0732
▁Project	-11.0733
▁Fa	-11.0738
▁நன்னூல்	-11.074
▁நிக்கல்	-11.0743
▁எனலாம்	-11.0744
▁எழுத்த	-11.0744
Ro	-11.0744
▁வெல்ல	-11.0745
▁பரிசோதனை	-11.0746
▁மேலூர்	-11.075
ess	-11.075
▁பகுஜன	-11.075
▁அட	-11.0751
:1974	-11.0751
▁பிளாக்	-11.0752
▁டைம்ஸ்	-11.0753
▁இரண்ட	-11.0755
▁என்பவன்	-11.0755
▁இயங்குதள	-11.0758
ose	-11.0759
▁ஜெயந்தி	-11.0761
▁கழி	-11.0765
ட்ரா	-11.0772
▁பாரத்	-11.0773
▁ஆட்சிக்கு	-11.0774
2,000	-11.0775
▁களங்கள்	-11.0776
முன்	-11.0776
கந்த	-11.0776
▁திருவையாறு	-11.0777
▁டன்	-11.0779
லைக்	-11.078
வையாக	-11.0781
▁உயர்நீதிமன்ற	-11.0782
▁ஆள	-11.0782
ர்பூர்	-11.0785
புரோ	-11.0785
▁அதிகாரிகள்	-11.0789
▁மூட	-11.0794
வத்	-11.0795
▁மராத்தி	-11.0797
களிடமிருந்து	-11.0797
செல்சியசு	-11.0798
▁இணைக்கப்பட்டது	-11.0799
▁பேரா	-11.0801
கார்ப	-11.0802
செர்	-11.0805
டூ	-11.0806
மலாய்	-11.0807
▁செஞ்சி	-11.081
▁ஆண்டாகும்	-11.0812
▁ஒருவராவார்	-11.0812
ker	-11.0812
▁துணைக்	-11.0814
ake	-11.0817
▁புரிந்து	-11.0817
குமார	-11.0819
▁அரசுப்	-11.082
▁உருவாக்கம்	-11.082
▁கருதப்பட்டது	-11.0821
▁ஓவியர்	-11.0821
:1973	-11.0821
▁வியா	-11.083
▁வலிமை	-11.0831
▁பணம்	-11.0831
▁வேதிப்	-11.0831
▁முறையாகும்	-11.0833
▁பங்கா	-11.0835
ச்சாலை	-11.0835
4)2	-11.0838
▁விண்கல	-11.0839
▁தோல்வியடைந்தார்	-11.0839
New	-11.0841
சிலி	-11.0842
பெக்	-11.0842
▁இதழ்களில்	-11.0844
▁இருப்பு	-11.0849
▁சிற்பங்கள்	-11.0849
▁இன்றும்	-11.0849
images	-11.085
▁இலாப	-11.085
▁மதம்	-11.0851
▁முடிவுக்கு	-11.0852
▁than	-11.0852
ந்தான்	-11.0854
mat	-11.0854
யாளராக	-11.0857
பவர்	-11.0858
▁எளிதாக	-11.0859
மத்திய	-11.0859
▁கிழ	-11.0859
▁சாத்த	-11.086
▁உங்கள்	-11.0861
ira	-11.0864
▁Ag	-11.0865
▁இராச்சியத்தை	-11.0865
▁சேமிப்பு	-11.0867
▁கோயிலுக்கு	-11.0868
▁(16	-11.0871
ரோஸ்	-11.0871
▁வேட்டையாட	-11.0872
சூரிய	-11.0873
▁மொழியாகும்	-11.0874
▁தானிய	-11.0874
▁வழங்கினார்	-11.0875
▁பழங்கால	-11.0876
வேத	-11.0877
▁கண்ணூர்	-11.0877
ேஸ்வர	-11.0878
▁மூக்கு	-11.0886
▁இல்லா	-11.0887
கற்	-11.0887
▁வேட்டை	-11.0889
▁உமா	-11.0889
ld	-11.089
▁விளையாட்டரங்கம்	-11.089
▁அந்தப்	-11.089
▁06	-11.0891
▁பிரிந்து	-11.0892
num	-11.0893
பாசு	-11.0893
புறம்	-11.0894
▁அமிலத்தின்	-11.0895
ஆக்சுபோர்டு	-11.0899
▁வழிபட்ட	-11.0899
="2"	-11.0899
Tha	-11.0899
pos	-11.0901
▁தட்டு	-11.0904
▁வங்கிகள்	-11.0905
மூலம்	-11.0905
▁எனத்	-11.0906
கீர்	-11.0906
▁சுற்றில்	-11.0907
▁வில்லை	-11.0907
File	-11.0907
▁கொல்லப்பட்டார்	-11.091
▁பவுல்	-11.0912
காரம்	-11.0916
குள	-11.0917
fa	-11.0918
▁திருமங்கலம்	-11.0918
ளின்	-11.0919
ப்பிரியா	-11.092
▁1914	-11.0921
அசிட்டிக்	-11.0922
4475	-11.0926
▁செயலக	-11.0928
▁தட்சிணாமூர்த்தி	-11.0929
▁ஆகியோரால்	-11.093
▁கல்லா	-11.0931
▁வந்தனர்	-11.0931
▁நீரிலி	-11.0932
:1965	-11.0932
▁பொய்	-11.0933
வேர்	-11.0936
review	-11.0938
iss	-11.0938
▁உள	-11.0939
ze	-11.0942
▁சப்பான்	-11.0943
▁விளக்கும்	-11.0944
டோன்	-11.0945
▁Profile	-11.0947
ஸ்கோ	-11.0949
பர்ட்	-11.0951
▁ஆயிர	-11.0951
▁படித்து	-11.0951
ரம	-11.0951
▁உருசியாவின்	-11.0952
▁காணப்பட்ட	-11.0952
▁துரு	-11.0957
▁உன்	-11.0958
▁su	-11.0958
▁பழம்	-11.0959
▁சனத்தொகை	-11.0961
▁பிலிப்	-11.0965
▁பீகாரின்	-11.0969
▁சந்த்	-11.097
ரானா	-11.097
▁Khan	-11.0971
▁இம்மக்கள்	-11.0971
▁அவன	-11.0974
:1967	-11.0978
▁அள	-11.0979
▁இரும	-11.0979
▁அணியினை	-11.0981
ங்கன்	-11.0983
ுறுப்பு	-11.0984
▁Jo	-11.0986
க்காட்டு	-11.0991
▁சான்றிதழ்	-11.0991
▁திரௌபதியம்மன்	-11.0991
'}	-11.0993
tions	-11.0994
▁மடி	-11.0997
▁உயரிய	-11.0998
னுக்கும்	-11.0998
ியாக	-11.0999
▁முற்றிலும	-11.1
fi	-11.1
போர்ட்	-11.1001
▁கொடுத்து	-11.1003
▁குப்தா	-11.1004
▁தரவுகள்	-11.1004
▁மீட்ட	-11.1005
▁உருசியா	-11.1006
▁நைட்	-11.1007
▁பாபா	-11.101
ions	-11.101
கட்டுரை	-11.1012
யேற்ற	-11.1013
gh	-11.1013
▁பொருளின்	-11.1018
▁photo	-11.1021
endra	-11.1022
த்தர்	-11.1024
4746	-11.1026
▁1912	-11.1026
▁கொள்ளலாம்	-11.103
▁கோபுரங்கள்	-11.1031
▁பசுமை	-11.1031
▁மாறியது	-11.1031
▁தொட	-11.1033
▁மோனோ	-11.1034
▁பிரேசில்	-11.1039
▁மாநாட்டு	-11.104
lf	-11.1043
▁கிராமங்களும்	-11.1043
ட்ரிக்	-11.1043
▁edit	-11.1045
▁விடு	-11.1045
▁லக்	-11.1046
ர்ட்	-11.1047
விற்கும்	-11.1049
uc	-11.105
▁இத்தீவு	-11.1051
9221	-11.1051
dha	-11.1053
:1968	-11.1053
டெக்	-11.1054
▁வளர	-11.1057
▁Malaysia	-11.1057
▁அம்பாள்	-11.1058
▁Pal	-11.1058
▁இவன	-11.1059
td	-11.1059
றும்	-11.1061
ator	-11.1066
▁இழந்த	-11.1067
▁கோட	-11.1067
கிற	-11.1068
▁அந்	-11.107
▁விழி	-11.1072
/11	-11.1073
பீட	-11.1075
dd	-11.1076
▁விருத்தி	-11.1077
▁சமா	-11.1078
லிக்	-11.1078
rate	-11.1082
▁Council	-11.1085
▁எட்டாம்	-11.1085
பந்த	-11.1087
label	-11.1087
▁மதுரா	-11.1091
சமய	-11.1091
▁ஐதர	-11.1093
▁சுக	-11.1094
▁அகமதாபாத்	-11.1095
ம்பேட்டை	-11.1097
க்கூர்	-11.1098
▁படிம	-11.1099
Ti	-11.11
▁மட்டத்தில்	-11.1101
▁Group	-11.1102
▁des	-11.1104
▁பலி	-11.1105
ert	-11.1105
▁சாங்	-11.1105
yr	-11.1105
காரன்	-11.1107
use	-11.111
▁two	-11.111
▁ஃபெ	-11.1111
வைணவ	-11.1112
bottom	-11.1112
உயிரியல்	-11.1112
▁ஆலோசனை	-11.1113
▁சித்தூர்	-11.1115
▁மலாக்கா	-11.1116
▁சிறுநீரக	-11.1116
டெர்	-11.1116
▁சாரணர்	-11.1116
tle	-11.1118
▁(2009)	-11.1119
▁ஆட்	-11.1119
▁கிர	-11.1122
▁செயலாளராகவும்	-11.1123
ீடு	-11.1126
key	-11.1129
மீட்டர்	-11.1131
▁கற்க	-11.1134
▁column	-11.1138
ப்பாடல்	-11.1138
▁இஸ்	-11.114
▁தயோ	-11.1143
▁My	-11.1143
▁காவேரி	-11.1144
▁சேர்மங்களை	-11.1144
▁railway	-11.1145
del	-11.1145
▁பாடல	-11.1147
மரி	-11.1147
▁Development	-11.1148
▁கலங்கரை	-11.1148
லோக	-11.1149
பானி	-11.115
low	-11.115
▁பணிகளை	-11.115
▁இராமசாமி	-11.1151
▁குன்ற	-11.1151
▁விநாயக	-11.1153
▁Dis	-11.1154
▁மகி	-11.1159
மாலி	-11.1159
அமெரிக்கப்	-11.116
▁அரசாங்கத்தின்	-11.116
▁icon	-11.116
▁நரி	-11.1161
gr	-11.1161
காவ்	-11.1161
light	-11.1161
சியோ	-11.1162
▁முகவரி	-11.1162
விக்கி	-11.1165
▁மேலவை	-11.1165
▁கழு	-11.1165
▁பூக்கள்	-11.1166
:1975	-11.1168
▁Rama	-11.1168
ney	-11.1169
rum	-11.117
▁உயர்த்த	-11.117
dhi	-11.1173
▁வாழ்விடம்	-11.1173
▁சாம்ப	-11.1173
▁எருமை	-11.1174
▁பூங்காவில்	-11.1174
pre	-11.1174
▁நிமிட	-11.1176
▁வேல்	-11.1177
back	-11.1178
▁வடுக	-11.1178
ஆக	-11.1178
உணவு	-11.1179
▁பதினைந்தாம்	-11.1179
▁படிப்பறிவு	-11.1179
மிடில்செக்	-11.1179
▁கிருஷ்ணமூர்த்தி	-11.1181
▁மரபுவழி	-11.1182
உத்தராகண்ட	-11.1182
பக்கம்	-11.1182
▁சர்வ	-11.1183
யக	-11.1185
:1988	-11.1186
▁கழுத்து	-11.1189
▁கொல்லப்பட்ட	-11.119
▁கதிரியக்க	-11.12
▁மிகை	-11.1202
▁Mu	-11.1203
bal	-11.1204
இவர்	-11.1207
temple	-11.1208
▁அந்தர	-11.1209
பிள்	-11.121
▁தோராயமாக	-11.1211
▁நன்னீர்	-11.1211
▁செயல்பட்டார்	-11.1213
▁CO	-11.1214
detail	-11.1214
▁ஜாக்	-11.1216
▁பிரித்து	-11.1216
Sri	-11.1217
▁li	-11.1219
கட்டு	-11.1219
lower	-11.1221
▁கல்வெட்டுகள்	-11.1227
fr	-11.1229
தயோ	-11.1231
▁வேகமாக	-11.1231
▁பிர்	-11.1231
▁அலகான	-11.1232
-2-	-11.1233
▁கல்வியினை	-11.1236
▁James	-11.1236
▁மருத்துவர்கள்	-11.1238
விளையாடியுள்ளார்	-11.1239
காலி	-11.1241
▁படுத்தியுள்ளார்	-11.1243
Name	-11.1245
▁நோயாளி	-11.125
▁கொம்பு	-11.125
▁Pan	-11.1251
▁நிலையங்களில்	-11.1254
ெடுத்த	-11.1256
:9	-11.1259
▁அருணாச்சலப்	-11.126
▁தென்னிந்தியாவில	-11.126
▁டவுன்	-11.1262
▁mi	-11.1266
▁உணர	-11.1266
:1987	-11.1268
லாங்	-11.1271
பெரி	-11.1272
Bar	-11.1272
▁800	-11.1273
с	-11.1276
ோம்	-11.1279
▁விற்க	-11.1279
கனிமங்கள்	-11.128
▁நன்றி	-11.1281
▁கட்டாய	-11.1282
சங்ககால	-11.1283
ஸ்தான்	-11.1283
▁சபையின்	-11.1283
UR	-11.1284
▁ஐரோப்பாவில்	-11.1284
▁காலத்திற்கு	-11.1286
▁(4	-11.1287
anta	-11.1287
Ni	-11.129
▁தெய்வங்கள்	-11.1292
ati	-11.1293
▁அலகுகளாக	-11.1296
▁பச்ச	-11.1301
ற்றா	-11.1303
பொழுது	-11.1304
▁கூட்டம்	-11.1305
Vi	-11.1306
சாமர்செட்	-11.1306
ப்படம்	-11.1307
anna	-11.1308
asi	-11.1308
▁வோல்	-11.1308
வனது	-11.1311
▁பெண்ண	-11.1311
▁விகடன்	-11.1315
▁நடவடிக்கைகள்	-11.1318
சிடே	-11.132
▁04	-11.132
▁ஆற்ற	-11.1324
:1963	-11.1324
தாரா	-11.1325
▁பாரதியார்	-11.1326
ரணி	-11.1326
ros	-11.1329
▁மேற்குப்	-11.1331
▁பிரீ	-11.1333
▁யாழ்	-11.1338
ஹள்ளி	-11.1338
▁இளவரசி	-11.1338
▁படிகமாகிறது	-11.1338
▁இனி	-11.134
▁விக்ரம்	-11.134
▁(2000)	-11.1341
▁இப்படத்திற்கு	-11.1341
▁மகனும்	-11.1342
cho	-11.1342
▁விரிவான	-11.1343
▁செய்துள்ளார்	-11.1345
▁முனைய	-11.1345
▁month	-11.1346
▁Pr	-11.1349
▁அணுக	-11.1349
▁107	-11.1352
▁தொடங்கும்	-11.1355
To	-11.1357
▁வின்	-11.1369
▁காள	-11.137
▁தரிசனம்	-11.137
கோல்	-11.1371
மத	-11.1374
னான	-11.1374
▁இசைப்	-11.1378
துரை	-11.1379
ென்சிசு	-11.138
சுடென்	-11.1382
ree	-11.1383
சம்மு	-11.1384
ிட்ட	-11.1384
யாத	-11.1385
▁இளவரசர்	-11.1385
▁இங்கிலாந்தில்	-11.139
▁உட்படுத்த	-11.1391
▁109	-11.1392
▁அயோத்தி	-11.1392
▁நாளிதழ்	-11.1395
▁தீர்வு	-11.1396
சைடு	-11.1397
▁சமயங்களில்	-11.1397
▁உற	-11.1401
source	-11.1402
▁ஆகியவற்றைக்	-11.1402
itu	-11.1403
▁காரைக்குடி	-11.1403
▁பயன்படுகின்றன	-11.1404
▁(2013)	-11.1406
▁ஆளுநர்கள்	-11.1407
▁(2014)	-11.1408
Indian	-11.1411
▁ஆணையத்தின்	-11.1411
▁கதாபாத்திரம்	-11.1412
பிரா	-11.1414
▁முரளி	-11.1415
▁இராணுவப்	-11.1417
▁1943	-11.1417
▁·	-11.1418
▁துருக்கி	-11.1418
▁வழியே	-11.1419
▁கல்லூரியிலும்	-11.142
▁நபி	-11.1422
▁மூக்க	-11.1423
வென்	-11.1424
ந்துறை	-11.1424
▁Maha	-11.1426
0.0	-11.1426
cu	-11.1428
▁இசைக்கருவி	-11.1431
▁Sam	-11.1431
▁Department	-11.1434
▁இன்ஃபோ	-11.1436
▁வீழ்ச்சி	-11.1436
▁வாழிடம்	-11.1437
ans	-11.1437
▁நிறுவனத்தை	-11.1438
▁ஜெக	-11.1439
யிலான	-11.144
வூ	-11.144
▁கைப்பற்றி	-11.144
▁பிரெ	-11.144
நோக்கி	-11.1441
▁0.2	-11.1444
▁கிராமத்தினை	-11.1444
ருந்து	-11.1446
8291	-11.1447
▁பயன்படுத்திய	-11.1447
▁தூண்	-11.1448
▁இவ்வி	-11.145
doc	-11.1451
▁OF	-11.1451
ப்புகள்	-11.1451
▁காங்	-11.1451
▁சிற்ற	-11.1453
▁th	-11.1454
▁காரணி	-11.1455
▁கொலம்பியா	-11.1456
▁பிடி	-11.146
திலும்	-11.1462
▁சாகி	-11.1462
▁படுத்த	-11.1462
டிங்	-11.1462
▁வெப்பநிலைக்கு	-11.1464
▁தொட்ட	-11.1465
▁ஆசை	-11.1467
▁நொ	-11.1467
▁தெளிவாக	-11.1468
▁குறைபாடு	-11.1469
ாண்டு	-11.1471
▁பாடியுள்ளார்	-11.1472
▁நடந்து	-11.1474
▁பாடலாசிரியர்	-11.1474
-12	-11.1476
ம்மன்	-11.1477
இசை	-11.1477
▁குரங்கு	-11.1481
ம்மாள்	-11.1483
ிற	-11.1485
▁எழுந்த	-11.1485
▁ஒன்றின்	-11.1485
▁சாகித்திய	-11.1487
▁Sun	-11.1488
▁ஒளிபரப்ப	-11.1488
▁அளவிட	-11.1491
▁ஆசியாவில்	-11.1496
Tri	-11.1497
▁அம்மோனியம	-11.15
ved	-11.15
▁who	-11.15
▁கண்ணா	-11.1502
World	-11.1502
கனடிய	-11.1503
ரேபிட	-11.1504
▁வெங்க	-11.1505
una	-11.1507
▁நேபாளத்தின்	-11.1507
▁தனியாக	-11.1509
மண்டல	-11.1511
▁நிறுவனங்களின்	-11.1511
ev	-11.1513
▁ஓரி	-11.1515
▁description	-11.1517
1957	-11.1519
direct	-11.1519
▁Ancient	-11.1522
▁கணி	-11.1523
▁செக்	-11.1525
180	-11.1526
யக்	-11.153
▁அதிகபட்ச	-11.153
▁இசையமைத்தார்	-11.1532
வசிக்கின்றார்கள்	-11.1533
▁திசையில்	-11.1535
▁தனிநபர்	-11.1535
புளோரைடுகள்	-11.1535
ization	-11.1537
▁போதும்	-11.154
வோர்	-11.1541
SA	-11.1544
சபை	-11.1544
▁ஜோன்	-11.1546
ford	-11.1546
காம	-11.1547
மாற்ற	-11.1548
▁பக்தர்கள்	-11.155
ode	-11.1551
▁கோல	-11.1552
sam	-11.1553
▁சக்	-11.1554
1984	-11.1557
▁நாட்	-11.1562
▁உயிரிழந்தனர்	-11.1566
▁புல்வெளி	-11.1567
த்திரை	-11.1567
▁(2015)	-11.1568
▁வேதியியலில்	-11.1569
ேட்டை	-11.157
சனா	-11.1572
மாத	-11.1574
▁தலங்களில்	-11.1577
ச்சே	-11.1578
▁1915	-11.158
▁உப்ப	-11.1581
▁அறிந்து	-11.1582
வாலி	-11.1583
▁புர்	-11.1584
சூன்	-11.1584
மெரி	-11.1587
▁1.5	-11.1588
▁fa	-11.159
ust	-11.159
பேசி	-11.159
▁வாக்குகளை	-11.1592
கத்	-11.1593
காண	-11.1594
Thiru	-11.1597
கணித	-11.1598
▁beginning	-11.1598
▁என்னுமிடத்தில்	-11.1599
▁கொடுக்கிறது	-11.16
சிரி	-11.16
▁(2016)	-11.1601
▁கூறப்படும்	-11.1603
▁சிற்பம்	-11.1604
▁Great	-11.1606
▁டார்	-11.1607
ei	-11.1607
▁வழக்கமாக	-11.1608
▁கரையும்	-11.1609
5831	-11.161
தைக்	-11.161
Con	-11.161
▁மொழியாக	-11.1612
|350	-11.1614
த்திட்ட	-11.1616
யசு	-11.1618
▁ஈரான்	-11.162
பாத	-11.1621
Po	-11.1626
க்காகவும்	-11.1626
time	-11.1626
▁நடுவர்	-11.1627
▁Pradesh	-11.1631
▁Technology	-11.1631
கஞ்சு	-11.1632
▁தேர்தலுக்கு	-11.1633
▁வேதாந்த	-11.1634
▁ஆப்பிள்	-11.1634
சல்பைடு	-11.1636
TA	-11.1636
template	-11.1636
மட்ட	-11.1639
ாயிரம்	-11.1639
▁அம்சங்கள்	-11.1639
▁அட்ட	-11.164
▁தியாக	-11.1641
ரோசு	-11.1642
தாசு	-11.1642
▁நாத	-11.1642
▁உத்திர	-11.1645
▁தூது	-11.1645
▁ஏரியின்	-11.1646
ரௌ	-11.1647
கிரேக்க	-11.1648
▁சம்ப	-11.1648
▁0;	-11.1651
ப்படுவதில்லை	-11.1655
/4	-11.166
விட்டார்	-11.1661
▁இலக்கியப்	-11.1661
நாய்	-11.1661
eld	-11.1663
▁அணைவுச்	-11.1664
:7	-11.1664
ப்பாதை	-11.1664
▁புர	-11.1664
ness	-11.1666
mu	-11.1666
▁பொதுமக்கள்	-11.1669
-9	-11.1669
ந்தார்	-11.1669
பாகிஸ்தான்	-11.167
▁Paul	-11.1671
▁அவ்	-11.1675
:2000	-11.1676
திர	-11.1677
ual	-11.1679
▁part	-11.168
▁எண்ணி	-11.168
:1962	-11.1681
bio	-11.1682
▁நடந்தது	-11.1683
anur	-11.1684
▁முற்றுகை	-11.1686
ப்படுகின்ற	-11.1687
▁முகம்	-11.1689
திர்	-11.169
▁விண்வெளித்	-11.1691
▁அதிகாரம்	-11.1692
▁வாரணாசி	-11.1697
▁செயிண்ட்	-11.1698
▁அக்னி	-11.1698
ஜென்டில்ம	-11.1699
கிராமம்	-11.17
▁கரைசல்	-11.17
▁101	-11.1701
▁ஆப்கானித்தான்	-11.1701
▁-->	-11.1701
RI	-11.1703
▁மதிப்பிட	-11.1704
ட்டும்	-11.1705
னியன்	-11.1705
குலா	-11.1706
▁எட்ட	-11.1707
▁மாணவர்களுக்கு	-11.1707
▁நிறத்திலும்	-11.1708
▁உதவியுடன்	-11.1708
▁ஐதராக்சி	-11.1708
▁நீக்கப்பட்ட	-11.1709
ழுத்த	-11.1714
▁Pra	-11.1715
▁விருதினை	-11.1717
garh	-11.1721
ட்லி	-11.1722
▁ராய	-11.1723
▁துர்	-11.1724
குறு	-11.1725
ங்கும்	-11.173
▁ஏராளமான	-11.1731
cre	-11.1732
▁வெற்றிபெற்றார்	-11.1732
ஹே	-11.1733
▁without	-11.1734
ating	-11.1735
▁உட	-11.1736
▁சிறப்புக்	-11.1745
புதிய	-11.1746
போல	-11.1747
▁புகை	-11.1747
▁மேன்	-11.1748
▁நிலவியல்	-11.1751
bird	-11.1752
2025	-11.1754
ியுள்ளது	-11.1755
▁கனிமமாகும்	-11.1756
▁கோபால	-11.1759
லோன்	-11.176
oy	-11.176
▁சிற்றிதழ்	-11.1761
நிதி	-11.1764
ழல்	-11.1764
▁ஆரோகணம்	-11.1764
▁free	-11.1764
▁வடகிழக்கில்	-11.1765
▁பண்டிகை	-11.1765
▁குடும்பத்தினைச்	-11.1765
▁காமா	-11.1765
▁original	-11.1765
▁பராமரிப்பு	-11.1766
ட்டீ	-11.1767
▁உவமை	-11.177
▁கஜ	-11.177
▁System	-11.177
பாஜக	-11.1771
▁அறிவியல	-11.1771
நாகேஷ்	-11.1771
Current	-11.1773
▁பங்கேற்ற	-11.1773
▁பாலூட்டிகள்	-11.1773
▁]	-11.1775
▁கனடாவில்	-11.1775
▁மடங்கு	-11.1776
▁அணுக்கள்	-11.1779
திட்ட	-11.1779
Da	-11.178
துடன்	-11.1781
▁George	-11.1784
▁கிரு	-11.1784
▁வடக்குப்	-11.1787
ராயன்	-11.1787
▁Sar	-11.1789
IR	-11.1791
▁Ju	-11.1791
-16	-11.1792
▁சிறையில்	-11.1793
▁எய்	-11.1794
▁புலிகளின்	-11.1795
ரிசி	-11.1796
▁துர்கா	-11.1797
▁நடிகருக்க	-11.1797
ராசன்	-11.1798
▁கிரிகோரியன	-11.1798
▁உள்நாட்டுப்	-11.1798
▁தெரிகிறது	-11.1799
▁தானியங்கி	-11.1801
ெய்	-11.1804
ேசன்	-11.1804
pat	-11.1804
ப்ரி	-11.1806
தென்காசி	-11.1806
▁பேசப்படும்	-11.1807
பெரும்	-11.1807
▁தொற்று	-11.1807
ங்கால்	-11.1808
▁தருகிறது	-11.181
வுக்கும்	-11.181
ப்புள்ளி	-11.1812
▁இளங்கலைப்	-11.1813
▁இத்தாவரம்	-11.1815
▁வானியலாளர்	-11.1817
lur	-11.1818
வலசா	-11.1819
பாரதி	-11.1822
நாயகம்	-11.1824
யொ	-11.1824
:1944	-11.1826
தள	-11.1829
▁வாகை	-11.1829
▁ஹென்றி	-11.1832
▁Database	-11.1832
▁We	-11.1833
▁பரவியுள்ளது	-11.1836
▁ஜக	-11.1836
exp	-11.1837
▁குகைகள்	-11.1838
மரு	-11.1838
world	-11.1839
பிசு	-11.1839
கிர	-11.1839
உறுப்பினர்கட்சி	-11.184
▁கிடை	-11.1841
▁சூழ	-11.1842
▁முயல்	-11.1842
▁பரிமாற்ற	-11.1844
▁அமைய	-11.1847
▁ஒருமுறை	-11.1847
▁403	-11.1852
:1959	-11.1853
▁டிவி	-11.1854
▁Pi	-11.1855
▁சத்தீசுகர்	-11.1855
ப்பொருளாக	-11.1856
▁விண்ண	-11.1857
▁ஓடை	-11.1858
ami	-11.1858
pr	-11.1859
▁சுவ	-11.1859
விர	-11.186
▁இராகங்கள	-11.186
▁பாடகி	-11.1863
பெரிய	-11.1864
▁இறந்து	-11.1864
▁Lake	-11.1864
ries	-11.1865
▁முஸ்லீம்	-11.1866
ü	-11.1866
▁ஏற்றுமதி	-11.1866
▁பீட	-11.1866
tho	-11.1867
▁பூசண்	-11.1868
▁உட்புற	-11.1868
▁வருடம்	-11.1869
▁இந்நூலில்	-11.1869
சுடர்	-11.1869
வருகிறது	-11.187
▁கொன்ற	-11.187
பாதி	-11.1872
▁நடத்தப்படும்	-11.1872
ராணி	-11.1872
இயக்கியிருந்தார்	-11.1875
▁உத்	-11.1877
ஸில்	-11.1879
▁So	-11.188
▁அச்சுறுத்த	-11.1881
மோன்	-11.1887
▁அணுக்கள	-11.1887
▁விகித	-11.1889
▁தயாரிக்கப்படும்	-11.189
▁கிமீ	-11.189
சைன்	-11.1893
ிருப்ப	-11.1893
▁அதிகாரியாக	-11.1893
▁ஐசோ	-11.1895
▁பீடபூமி	-11.19
▁இப்பள்ளி	-11.1901
மாரி	-11.1902
இசையமைத்துள்ளார்	-11.1903
திலிருந்து	-11.1904
▁தயாரிக்கும்	-11.1904
ாய	-11.1904
வெட்டி	-11.1905
▁சாம	-11.1914
him	-11.1915
▁புகைப்பட	-11.1917
▁பரிசத்	-11.1919
So	-11.1921
▁கழுகு	-11.1926
▁மைக்ரோசாப்ட்	-11.1926
CN	-11.1927
▁வளிம	-11.1933
▁எக்டேர்	-11.1934
▁230	-11.1934
லாசு	-11.1936
▁பாலாஜி	-11.1938
▁இருப்பதை	-11.1939
புலியூர்	-11.1941
▁நன்ன	-11.1942
▁his	-11.1942
▁நிறுவனங்களில்	-11.1948
▁மொக	-11.1948
▁அடிகள்	-11.1948
unt	-11.1949
▁வரையும்	-11.1949
▁இராஜா	-11.1951
▁Ber	-11.1952
▁வழங்கப்பட்டு	-11.1952
▁செய்தனர்	-11.1952
▁இருந்தபோது	-11.1955
:5	-11.1957
▁முயன்ற	-11.1959
▁ஆரம்பமானது	-11.196
▁மக்னீசியம்	-11.196
▁குன்று	-11.1962
▁அத	-11.1963
▁மாறாக	-11.1964
pon	-11.1964
▁விமர்சனம்	-11.1967
வதில்லை	-11.1967
krishnagiri	-11.1968
Col	-11.1968
▁அம்பேத்கர்	-11.1968
▁செயின்ட்	-11.1968
▁வந்தவாசி	-11.197
▁விரைவாக	-11.197
▁(2018)	-11.1971
▁அந்தக்	-11.1973
▁ஃ	-11.1974
▁images	-11.1975
ero	-11.1976
தென்னிந்திய	-11.1978
Ac	-11.1978
▁வாங்கி	-11.198
▁கனடாவின்	-11.1981
▁And	-11.1987
:2018	-11.1987
gg	-11.1987
▁மூங்கில்	-11.1988
▁Examples	-11.1989
km	-11.1989
▁der	-11.199
▁ar	-11.1991
Go	-11.1994
▁Pages	-11.1996
ாசிரியர்	-11.1997
▁உறுதிப்படுத்த	-11.2
▁அவரின	-11.2001
pradesh	-11.2002
▁ஐப்பசி	-11.2002
▁டிஸ்னி	-11.2002
ராவார்	-11.2004
:1954	-11.2004
▁some	-11.2004
▁அழற்சி	-11.2006
▁தடுப்பு	-11.2006
▁இலைகள்	-11.2007
திற்குத்	-11.2009
தார	-11.201
கொண்டான்	-11.2011
க்கின்றன	-11.2013
லொ	-11.2014
▁நேச	-11.2014
▁முடிவில்	-11.2015
புவி	-11.2015
ுவார்கள்	-11.2015
▁நிர்வாகப்	-11.2015
:8	-11.2016
▁சூல	-11.2019
andi	-11.2021
▁பணியை	-11.2021
▁பொருளாகும்	-11.2022
MP	-11.2026
▁இயங்கு	-11.203
▁என்றே	-11.203
▁current	-11.2032
▁குறிப்புகளும்	-11.2034
▁பாப்பிரெட்டி	-11.2036
▁ராஜகோபுரம்	-11.2036
▁லிமிடெட்	-11.2036
பியூட்டைல்	-11.2036
▁நாவல	-11.2037
▁சிறி	-11.2037
▁fair	-11.2038
nc	-11.2039
▁கோட்டைகள்	-11.2039
▁106	-11.2039
▁சொன்ன	-11.204
ls	-11.2042
ப்பிரி	-11.2044
▁லவ்	-11.2046
▁வாழ்வு	-11.2048
je	-11.2049
▁பார்க்	-11.2051
▁கிராமத்திற்கு	-11.2051
▁மாண்ட	-11.2051
▁உதவ	-11.2053
வாச	-11.2053
:1940	-11.2054
திறன்	-11.2054
▁கற்பிக்க	-11.2056
▁குறிப்பிடப்பட்ட	-11.2058
▁சுஜாதா	-11.2061
வாட்	-11.2062
▁வரம்புக்கு	-11.2065
மிசு	-11.2066
▁சென்ன	-11.2066
▁வளர்த்த	-11.2066
லுடன்	-11.2067
▁திகழ்கிறது	-11.2071
▁Sha	-11.2071
▁ஆயினும்	-11.2073
▁திறன	-11.2073
▁வெடிப்பு	-11.2074
▁தேசியவாத	-11.2074
கஸ்	-11.2076
▁நெறிமுறை	-11.2076
▁புகழ	-11.2077
▁இணைகிறது	-11.2078
:1966	-11.208
னேந்தல்	-11.2081
தனால்	-11.2081
▁அசல்	-11.2083
▁பத்த	-11.2083
▁வைத்தார்	-11.2083
வரான	-11.2084
▁கொங்க	-11.2088
athi	-11.2088
ிதழ்	-11.2089
▁குறிப்பிடுகிறார	-11.2095
▁யெ	-11.2097
▁வங்காளத்தின்	-11.2097
ம்பள்ளி	-11.2099
SS	-11.21
ப்பொருட்கள்	-11.21
%9	-11.21
▁தோன்றி	-11.2103
▁பகுதியினை	-11.2106
▁ஜூலியன்	-11.2106
கந்தக	-11.2107
clear	-11.2109
குண்ட	-11.2112
▁சிதம்பர	-11.2114
▁கூத்த	-11.2115
RE	-11.2117
▁கார்ல்	-11.2119
ll	-11.212
▁காசுமீர	-11.212
▁உண்	-11.2121
▁1905	-11.2122
▁1909	-11.2124
▁சுட்டு	-11.2126
cal	-11.2128
▁குறைவு	-11.2128
▁விளையாடும்	-11.2129
யிட்	-11.2129
▁மில்	-11.2129
ized	-11.2131
т	-11.2134
கொல்ல	-11.2134
▁he	-11.2134
▁சுக்	-11.2135
▁காகித	-11.2135
:2011	-11.2136
▁இதேகா	-11.2138
awa	-11.2141
▁புத்தாண்டு	-11.2141
▁திலக	-11.2142
குமாரி	-11.2142
▁ஜீவ	-11.2143
▁படத்தை	-11.2148
பாங்	-11.2149
▁மூவ	-11.2149
ேர்	-11.215
ாளராக	-11.215
ace	-11.2152
▁கூர்	-11.2152
mark	-11.2152
இறப்பு	-11.2153
ோட்ட	-11.2154
▁அலகாபாத்	-11.2156
▁முகப்பு	-11.2156
▁”	-11.2156
▁ஹொங்கொங்	-11.216
190	-11.2161
ினான்	-11.2161
மோகன்	-11.2162
தூதரகம்	-11.2167
▁Je	-11.2169
▁கடம்ப	-11.2171
▁மக்களில்	-11.2172
ப்பாட	-11.2173
▁Studies	-11.2175
TH	-11.2176
▁அதிபர்	-11.2177
▁டென்	-11.2177
புத்தூர்	-11.2177
▁நுண்ணுயிரி	-11.2178
▁நடராஜர்	-11.218
▁இப்படத்தின்	-11.2181
▁state	-11.2182
▁வலுவான	-11.2182
▁சேது	-11.2184
வியலாளர்கள்	-11.2186
ரத்	-11.2187
▁சேவைகளை	-11.2188
My	-11.2193
▁பகா	-11.2194
▁102	-11.2197
▁இடங்களை	-11.2198
▁அடித்தள	-11.2198
:1950	-11.2199
▁இலக்க	-11.2199
▁கொண்டதாகும்	-11.2204
▁அங்கே	-11.2205
arch	-11.2206
▁குட்ட	-11.2206
▁நடனக்	-11.2207
தைத்	-11.2208
elections	-11.2209
▁ஒரத்தநாடு	-11.221
▁தொலைபேசி	-11.221
▁case	-11.221
▁country	-11.2211
▁நகரங்களை	-11.2211
▁following	-11.2211
த்தும்	-11.2212
னிங்	-11.2212
▁சிவபெருமானின்	-11.2214
▁இராமச்சந்திரன்	-11.2215
▁காட்சியகம்	-11.222
▁சந்திரசேகர்	-11.2223
▁பொருட்டு	-11.2223
▁கள்ள	-11.2223
▁வெளிவரும்	-11.2223
▁115	-11.2225
▁பக்த	-11.2227
kulam	-11.2227
ரிமை	-11.2228
л	-11.2229
▁மாறும்	-11.2233
▁Sub	-11.2234
விஸ்	-11.2237
:1949	-11.2237
▁வலையமைப்பு	-11.2238
முடியும்	-11.2239
▁பெரும்பான்மையாக	-11.2239
▁சிக்	-11.2241
சபா	-11.2243
ச்சன்	-11.2246
▁நீக்கம்	-11.2246
censusindia	-11.2246
▁நண்பர்	-11.2246
▁சமூகத்தினரும்	-11.2248
old	-11.2248
வங்காள	-11.2248
▁சுற்ற	-11.2248
▁கம்போடியா	-11.2248
▁வென்றுள்ளார்	-11.2249
▁காரி	-11.2249
விரி	-11.2249
▁சத்த	-11.225
▁திண்மமாக	-11.225
▁வசனம்	-11.2251
paper	-11.2251
▁சீடர்	-11.2252
▁திரைப்படங்களை	-11.2255
க்கட்டு	-11.2256
▁ஆகக்	-11.2257
▁மித	-11.2257
▁பாராளுமன்றத்	-11.2258
ஞ்ச்	-11.2259
பாரி	-11.226
Wiki	-11.226
▁optional	-11.2263
களது	-11.2264
பாலா	-11.2264
புல	-11.2265
▁பவ	-11.2267
▁மண்டப	-11.2269
▁அங்குலம்	-11.227
▁பெறப்பட்டது	-11.227
VI	-11.2272
▁word	-11.2272
▁வயிற்று	-11.2273
OS	-11.2274
வணிக	-11.2277
▁கட்டுமானம்	-11.2277
ிணை	-11.2278
வானா	-11.2278
▁அனுபவ	-11.2278
▁கச	-11.2279
ந்திரா	-11.228
▁தோன்றியது	-11.2281
ராயர்	-11.2282
▁Bha	-11.2284
▁போட்டியிட	-11.2289
யிலே	-11.2291
▁கேட்டு	-11.2292
▁ஒருவகை	-11.2294
▁மாதங்கள்	-11.2295
க்கள	-11.2297
இராஜஸ்தான்	-11.2298
விசை	-11.2298
ப்ர	-11.2299
லேட்டு	-11.23
dur	-11.23
▁இராய	-11.2301
▁இனத்தைச்	-11.2302
▁தரும	-11.2302
▁1917	-11.2304
▁நிர்வாகி	-11.2305
▁சிதைவு	-11.2306
7540	-11.2307
▁தெரியுமா	-11.2308
▁சம்பந்த	-11.2315
▁நூற்பட்டியல்	-11.2316
▁பகிர்ந்து	-11.2317
▁காரணத்தால்	-11.2317
▁ஹர்	-11.2318
▁ஒன்றே	-11.2319
▁வாரியான	-11.2321
▁நன்	-11.2324
▁Date	-11.2325
▁செல்வாக்கு	-11.2325
▁நுழைவு	-11.2326
▁செட்டியார்	-11.2326
ானார்	-11.2326
▁உடலின்	-11.2329
▁உணவ	-11.2333
▁வடக்க	-11.2335
பள்ளம்	-11.2337
திமுக	-11.2337
▁சூடான	-11.2338
▁பண்புகளை	-11.2339
▁திறமை	-11.234
▁கௌரி	-11.234
▁Can	-11.2342
▁ஒதுக்க	-11.2344
▁வசன	-11.2346
ஹெ	-11.2347
▁First	-11.235
▁வங்கியின்	-11.235
▁நிலப்பரப்பு	-11.2351
▁GeoHack	-11.2351
▁பின்தங்கிய	-11.2351
▁நாடோடி	-11.2351
▁தொல்பொருள்	-11.2351
பௌத்த	-11.2351
▁பண்ப	-11.2352
▁வௌவால்	-11.2354
▁(2017)	-11.2354
▁காலத்தின்	-11.2354
ேசுவர	-11.2354
▁கூறினார்	-11.2355
தாச	-11.2356
▁மார்பு	-11.2356
▁where	-11.2356
▁தவிர்த்து	-11.2356
ிகா	-11.2359
▁பாதரச	-11.2359
▁Raj	-11.2359
கோடு	-11.236
zo	-11.236
action	-11.2361
▁போத	-11.2362
mann	-11.2365
▁செலவில்	-11.2366
▁தலைப்புகள்	-11.2366
uli	-11.2368
▁உடையார்	-11.2368
குழந்தை	-11.2368
•	-11.2368
:2016	-11.237
▁குரூ	-11.237
காய்	-11.2371
▁வழித்தட	-11.2371
▁மாற்றாக	-11.2371
▁பவள	-11.2373
▁பாரு	-11.2374
▁கட்டமைப்பில்	-11.2375
சாரம்	-11.2376
130	-11.2376
பணி	-11.2376
▁கல்வியறிவ	-11.2377
ுக்குப்	-11.2378
▁வெகு	-11.2379
▁இலட்ச	-11.2381
▁நக	-11.2382
நதி	-11.2385
யானா	-11.2385
▁தடுப்ப	-11.2385
▁Publishing	-11.2387
▁அரசியலமைப்பு	-11.2387
▁ரமேஷ்	-11.2387
படும்	-11.2387
"},	-11.2387
▁லக்னோ	-11.2389
▁தாண்டி	-11.239
:2012	-11.2391
இதன்	-11.2392
▁ஆயர்	-11.2395
▁Sea	-11.2396
வர்களாக	-11.2398
press	-11.2398
▁Michael	-11.2401
▁கருணாநிதி	-11.2401
▁இலட்சம்	-11.2402
▁ஜய	-11.2402
சிக்	-11.2403
▁விளங்கிய	-11.2404
:1961	-11.2408
IO	-11.2409
ுவதில்லை	-11.241
▁பெற்றுள்ளன	-11.241
▁வலய	-11.2412
hat	-11.2413
▁வெர்	-11.2416
▁129	-11.2419
▁சோலை	-11.2422
atta	-11.2422
▁same	-11.2422
▁என்பதைக்	-11.2422
▁வீட்டில்	-11.2424
டீன்	-11.2425
▁அறிவித்தார்	-11.2425
▁www	-11.2428
▁Law	-11.243
ப்பால்	-11.2431
யாள	-11.2433
▁விலகி	-11.2434
▁மிர்	-11.2437
▁பொழி	-11.2437
▁கடல்மட்டத்தில	-11.2439
எகிப்திய	-11.2441
▁விலா	-11.2441
▁கேப்	-11.2443
▁அவர்களை	-11.2444
▁மனோரமா	-11.2444
nia	-11.2444
▁தமிழ்நாட்டைச்	-11.2446
▁ராச	-11.2448
kumar	-11.2448
▁world	-11.245
▁1907	-11.245
▁இதைத்	-11.2452
▁இணைவு	-11.2452
டிசு	-11.2452
▁விவசாயி	-11.2453
had	-11.2453
▁சம்பவ	-11.2454
புத்திர	-11.2456
▁கைதி	-11.2456
▁நீலம்	-11.2457
:1956	-11.2457
▁Centre	-11.2458
▁நன்றாக	-11.2458
▁எட்வர்ட்	-11.2458
▁கரையோர	-11.2458
▁specified	-11.2459
▁நேர்மின்	-11.2461
▁மனோகர்	-11.2462
▁logo	-11.2462
▁Is	-11.2463
▁விக்கிரம	-11.2464
▁படு	-11.2466
▁கோட்டுரு	-11.2466
▁மையமாகக்	-11.2468
▁அம	-11.2471
▁படையெடுப்பு	-11.2472
▁subject	-11.2472
Dev	-11.2473
போரா	-11.2474
▁துத்தநாக	-11.2475
கன்னடத்	-11.2476
மட	-11.2478
2=	-11.248
▁நாடுகளுக்கு	-11.2481
oda	-11.2481
▁அம்பல	-11.2482
▁நாடாக	-11.2483
▁பொம்மை	-11.2484
க்கர	-11.2485
ங்கில்	-11.2486
▁மாறு	-11.2486
டரி	-11.249
என்ற	-11.2491
▁மையத்தின்	-11.2492
▁ஆய்வகம்	-11.2492
pl	-11.2494
▁கருதி	-11.2497
▁வெட்ட	-11.2499
▁பெரும்பான்மையான	-11.2499
ரீன்	-11.2499
▁ஆஸ்திரேலிய	-11.25
▁place	-11.25
▁உடற்	-11.2503
ப்பர	-11.2504
aster	-11.2504
▁Com	-11.2506
▁ரூப	-11.2506
eu	-11.2513
match	-11.2514
▁Mal	-11.2514
புவியியல்	-11.2515
▁முக்கியத்	-11.2515
▁டெல்	-11.2517
▁round	-11.2517
▁சேக்	-11.252
▁கிடைக்க	-11.2521
ஃப	-11.2521
வின	-11.2521
அவரோகணம்	-11.2527
கலன்	-11.2528
▁சாரதா	-11.253
▁கைலாசநாதர்	-11.2531
▁இயக்கு	-11.2531
ர்களால்	-11.2531
▁மலர்கள்	-11.2531
▁மசூதி	-11.2533
▁இறந்தவர்கள்	-11.2534
▁இறைச்சி	-11.2534
▁நிலையத்திற்கு	-11.2537
களுடனும்	-11.2537
▁மெகா	-11.2538
▁தாக்கி	-11.2541
▁ஆற்றலை	-11.2541
வளி	-11.2542
ப்புறம்	-11.2546
▁க்கும்	-11.2546
▁talk	-11.2548
▁கண்டறியப்பட்ட	-11.2548
▁செங்	-11.2548
▁உழ	-11.2549
▁ஆராய	-11.255
ஜின்	-11.255
▁பதில்	-11.2551
▁கென்யா	-11.2555
ஞான	-11.2555
-20	-11.2557
college	-11.2558
வீர்	-11.2561
▁Eu	-11.2562
▁மஹா	-11.2562
மியான்மர	-11.2565
ப்பட்டுள்ளார்	-11.2565
▁லட்சம்	-11.2567
ஆல்	-11.2567
ண்டன்	-11.2567
city	-11.257
▁இல்லம்	-11.257
ரிடே	-11.2571
▁நடித்ததன்	-11.2571
ுயிர்	-11.2572
RA	-11.2573
▁0.4	-11.2573
▁புளிய	-11.2574
டிப்பு	-11.2575
lon	-11.2576
▁Pat	-11.2579
▁ரோடு	-11.2579
▁பெர	-11.2579
▁What	-11.2581
▁இயந்திரம்	-11.2581
▁பாசன	-11.2583
▁சங்கு	-11.2584
▁வழிபாட்டு	-11.2585
:1948	-11.2586
▁error	-11.2586
▁ஆளுமை	-11.2587
▁பௌத்தம்	-11.2588
▁1906	-11.2589
▁சேர்மமான	-11.2592
ப்படு	-11.2595
▁செல்கின்றன	-11.2596
▁காற்ற	-11.2596
▁ஜெயா	-11.2596
இல	-11.2597
▁தெரி	-11.2597
▁கல்யாண்	-11.2597
:1952	-11.2599
▁அஞ்சலி	-11.26
▁புக்	-11.26
cle	-11.2601
களின்படி	-11.2603
candidate	-11.2603
மொத்தம்	-11.2604
கையில்	-11.2606
வள்	-11.2607
▁பிற்பகுதியில்	-11.2608
▁கிருதி	-11.2608
aceae	-11.2611
ந்தாங்கல்	-11.2616
:1947	-11.262
▁திரைப்படப்	-11.2621
ரூப	-11.2622
▁கார்பனேட்டு	-11.2622
▁non	-11.2623
▁திபெத்	-11.2624
▁பாண்டி	-11.2625
▁தன்ன	-11.2625
குழி	-11.2625
▁பேய்	-11.2628
ிடையே	-11.2629
▁புழு	-11.263
வாங்	-11.2631
▁high	-11.2632
▁மாங்கனீசு	-11.2636
மாக்க	-11.264
▁கவுண்டர்	-11.264
பைட்டு	-11.2641
▁கூடியது	-11.2641
▁உருளை	-11.2643
னஸ்	-11.2643
சிஸ்	-11.2646
▁நூலாசிரியர்	-11.2648
க்கரு	-11.2648
ஸ்கி	-11.2648
▁காற்றில்	-11.265
▁இறப்ப	-11.265
SC	-11.265
▁தீர்க்க	-11.2653
nom	-11.2653
ident	-11.2654
▁சகோதர	-11.2655
▁பேரினத்தின்	-11.2656
▁கென்	-11.2658
த்தனர்	-11.2658
காங்	-11.266
▁பாத்திரம்	-11.266
▁make	-11.2663
மோர்	-11.2664
▁பெண்களுக்கு	-11.2666
▁ராக்	-11.2667
பொன்	-11.267
ood	-11.267
▁உண்ணும்	-11.2672
▁விளங்க	-11.2672
▁சிவதாண்டவங்கள்	-11.2676
Legislative	-11.2676
மரா	-11.2677
▁நகராட்சியின்	-11.2677
▁பதவியேற்றார்	-11.2677
▁தாலுக்காவில்	-11.2678
RC	-11.2679
route	-11.2679
▁உருவாக	-11.268
▁மராத்திய	-11.2681
▁வன்	-11.2684
மேலும்	-11.2684
▁அவர்கள	-11.2684
▁பாடலை	-11.2684
uni	-11.2685
▁170	-11.2686
கைட்டு	-11.2686
▁நாடுகளிலும்	-11.2687
▁கல்லூரியாகும்	-11.269
▁ஆய்வாளர்கள்	-11.269
▁பந்தய	-11.2691
▁கரும்பு	-11.2692
ராசா	-11.2692
ளவில்	-11.2694
over	-11.2695
▁சூட்ட	-11.2696
▁நிலத்தில்	-11.2697
வியம்	-11.2699
halli	-11.2699
வாயில்	-11.2703
▁இடைக்கால	-11.2705
டோர்	-11.2705
சிறப்புப்	-11.2706
▁மாக்	-11.2706
▁1901	-11.2706
▁சரவாக்	-11.271
▁தாண்டவம்	-11.2711
க்கப்படுகிறது	-11.2711
ஒற்றைச்சரிவச்சு	-11.2713
▁Constituency	-11.2713
▁Railway	-11.2713
▁Wiley	-11.2713
▁profile	-11.2713
▁மேல்நிலைப்பள்ளி	-11.2714
bra	-11.2714
▁சிங்கப்பூரின்	-11.2716
தலைப்பு	-11.2718
DA	-11.2718
national	-11.2719
▁நச்சுத்தன்மை	-11.2722
மாதேவி	-11.2723
▁கனடிய	-11.2723
▁சேர்க்கப்பட்ட	-11.2726
தேவா	-11.2727
shan	-11.2731
ாக்சி	-11.2731
▁group	-11.2733
▁அழகி	-11.2733
today	-11.2733
▁கணேச	-11.2734
▁ஏழை	-11.2734
மாண்ட	-11.2735
விழா	-11.2737
class	-11.2738
gl	-11.2739
▁முதுகு	-11.2742
▁தொழில	-11.2744
▁கதையை	-11.2745
தலில்	-11.2745
pic	-11.2747
▁நடத்தப்படுகிறது	-11.2748
▁முல்லைத்தீவு	-11.2748
▁அழைப்ப	-11.2748
ல்லு	-11.2748
அனுராதபுர	-11.2749
▁ஒப்	-11.275
▁சிவகாமி	-11.275
▁மாணவ	-11.275
▁யூலியன்	-11.2751
▁சுப	-11.2751
விக்கித்திட்டம்	-11.2751
kerala	-11.2751
வற்றில்	-11.2752
▁அரேபியா	-11.2753
400	-11.2753
AC	-11.2754
▁Act	-11.2756
வெற்றி	-11.2756
▁பயன்படுத்தலாம்	-11.2756
▁அனுமன்	-11.2756
▁நாட்டார்	-11.2757
னைல்	-11.276
▁சிக்கல்	-11.2761
▁(10	-11.2762
மந்த	-11.2762
▁ஆவ	-11.2763
▁பொருட்களின்	-11.2764
ல்ஸ்	-11.2766
▁{'	-11.2767
▁குறுந்தொகை	-11.2773
▁எரு	-11.2774
யினைச்	-11.2774
▁குடா	-11.2775
▁அகரம்	-11.2776
▁இராஜஸ்தான்	-11.2777
பாகு	-11.2781
▁உத்தம	-11.2786
LA	-11.2786
தொல்லியற்களங்கள்	-11.2787
▁நாயக்	-11.2787
▁நீச்சல்	-11.2788
▁below	-11.2788
தேவர்	-11.2789
Link	-11.279
lis	-11.279
▁பணியாளர்	-11.2791
▁பிலிப்பீன்சு	-11.2791
திணை	-11.2792
▁தம	-11.2792
▁149	-11.2793
ிற்குப்	-11.2794
▁அரசுத்	-11.2796
▁Bird	-11.2798
▁ஆயுதங்கள்	-11.2799
மிகு	-11.2799
▁இந்நகரத்தில்	-11.2801
▁அவரோகண	-11.2802
க்கூடியது	-11.2803
▁மீரா	-11.2803
ச்சை	-11.2803
வராகவும்	-11.2806
ming	-11.2807
ிலை	-11.2807
கேட்	-11.2808
▁முதல்வராக	-11.2808
▁book	-11.281
▁Ki	-11.2812
▁vi	-11.2812
▁பாண்ட	-11.2813
கௌடா	-11.2815
பூக்கும்	-11.2815
▁மரபியல்	-11.2816
மாரியம்மன்	-11.2816
இணைய	-11.2818
▁சமயத்தில்	-11.2818
▁புதினம்	-11.282
▁நர	-11.282
குர்	-11.2821
▁முகலாயப்	-11.2822
ளர்	-11.2822
▁அறந்தாங்கி	-11.2824
▁பதினேழாம	-11.2824
▁மெக்சிகோ	-11.2824
▁காப்பாளர்கள்	-11.2824
▁மாடி	-11.2825
லதா	-11.2825
▁இசைக்குழு	-11.2826
▁பேரியம்	-11.2828
-(	-11.2828
▁பிடித்தார்	-11.2829
▁Ac	-11.2832
புரத்தில்	-11.2833
▁விமர்சகர்	-11.2836
▁மேகாலயா	-11.2837
▁சமாதி	-11.2839
▁நடுவ	-11.284
"|	-11.2842
▁பிரான்	-11.2842
–19	-11.2843
▁சிவகுமார்	-11.2844
வீடு	-11.2844
▁அத்	-11.2844
மல்ல	-11.2849
ஐதராக்சி	-11.2849
font	-11.285
▁கம்ம	-11.2853
ியலில்	-11.2853
▁கேட்க	-11.2854
osa	-11.2855
▁கொடுக்கும்	-11.2855
▁(5	-11.2856
கூடம்	-11.2856
▁team	-11.2856
Mal	-11.286
▁வளைவு	-11.2861
▁வடமேற்கே	-11.2861
▁வயதிற்கு	-11.2861
▁குச்சக்	-11.2861
▁மணம்	-11.2863
▁ஏற்படுகிறது	-11.2863
▁ஆக்ரா	-11.2864
ப்பார்	-11.2865
▁மேற்கொண்டார்	-11.2866
▁சேர்ந்தவர்கள்	-11.2869
▁புனை	-11.2869
story	-11.287
▁அற்ற	-11.2873
▁பாத்திர	-11.2874
▁எச்ச	-11.2875
கௌ	-11.2875
▁எழுத்துக்கள்	-11.2876
க்கூட	-11.2876
rm	-11.2878
தொடர்	-11.288
▁ரகு	-11.2881
▁கொன்	-11.2882
▁min	-11.2883
FA	-11.2883
சிகா	-11.2884
▁project	-11.2884
▁பயின்று	-11.2884
பீகாரின்	-11.2888
▁Cambridge	-11.2888
1/	-11.2889
▁car	-11.2892
▁அகரவரிசைப்	-11.2893
▁பட்டப்படிப்பு	-11.2896
▁பிபிசி	-11.2899
99380	-11.29
▁கீதா	-11.29
▁அய்யனார்	-11.29
▁(2019)	-11.2901
▁Central	-11.2902
▁தேர்ச்சி	-11.2905
▁புஷ்ப	-11.2907
▁ch	-11.2908
விண்மீன்	-11.291
▁ராஜீவ்	-11.2913
க்கூறு	-11.2915
▁get	-11.2916
▁மூலமும்	-11.292
▁அடைந்து	-11.2922
▁போலி	-11.2922
விடுதி	-11.2923
▁III	-11.2924
அணி	-11.2926
▁ஊழியர்	-11.2927
▁திட்டத்தை	-11.2928
▁பல்லவ	-11.2929
ப்போட்டி	-11.2931
▁ஏரியில்	-11.2931
வட்டம்	-11.2932
வாணி	-11.2934
▁உற்சவ	-11.2934
▁விஞ்ஞானி	-11.2935
▁கலைக்களஞ்சிய	-11.2935
▁1903	-11.2936
▁வீராங்கனை	-11.2936
▁திருவனந்தபுரத்த	-11.2936
▁திராவிடர்	-11.2937
▁சிலுவை	-11.2937
▁பலபடி	-11.2937
▁மயில்	-11.2937
▁அவற்றுள்	-11.2938
மிங்	-11.2939
▁இருக்கின்றது	-11.2941
சென்னையிலிருந்து	-11.2942
▁சிர	-11.2943
த்தெரு	-11.2943
▁மண்டல்	-11.2945
தையும்	-11.2946
▁சப்	-11.2946
ியவர்	-11.2948
ency	-11.2949
க்கொடி	-11.295
▁Time	-11.2951
▁பிராமண	-11.2951
▁இயக்குனர	-11.2951
▁பிரேம்	-11.2951
▁அமெரிக்கர்கள்	-11.2951
=4	-11.2952
ons	-11.2957
108	-11.2957
ரெட்	-11.2959
வெளியிட்டுள்ளார்	-11.296
▁தொடர்புடையது	-11.2961
▁அழிக்க	-11.2961
மையை	-11.2963
இதேகா	-11.2964
ery	-11.2964
▁நாயகி	-11.2966
▁மல்லி	-11.2966
க்கொள்	-11.2968
நெட்	-11.2971
▁கரிய	-11.2972
▁எங்க	-11.2973
ெலும்பு	-11.2975
▁புல்ல	-11.2975
▁நாக்பூர்	-11.2976
▁இராணுவம்	-11.2977
பட்	-11.2977
▁எத்தில்	-11.2979
▁வழிபட	-11.2979
▁கூடைப்பந்து	-11.298
▁சுட	-11.2981
▁கைலாச	-11.2981
▁ஆஸ்	-11.2983
லென்	-11.2984
ாச்சி	-11.2986
▁1902	-11.2987
3)3	-11.2987
ஷ்ட	-11.2989
▁காம்	-11.2993
▁பவு	-11.2994
னஅள்ளி	-11.2996
▁தீவுக்கூட்ட	-11.2996
▁சந்தியா	-11.2999
▁08	-11.2999
▁கதிர்வீச்சு	-11.3
▁ஆட்டத்தில்	-11.3001
டெல்	-11.3002
▁இம்முறை	-11.3004
▁வாச	-11.3005
▁படல	-11.3006
:1957	-11.3008
ட்டல்	-11.3009
iri	-11.3014
▁From	-11.3014
▁ஒருவரான	-11.3014
▁does	-11.3014
▁குறுக்கு	-11.3015
▁இனக்குழு	-11.3017
DE	-11.3019
நியூ	-11.302
1982	-11.3023
த்தொகுதி	-11.3023
ச்சோ	-11.3023
▁id	-11.3027
▁உருவாகி	-11.3027
▁Of	-11.3028
▁வீர்	-11.3028
▁சுரப்பி	-11.3029
play	-11.3029
▁மொழியியல்	-11.3031
காரா	-11.3032
▁சுப்பிரமணியர்	-11.3032
நூல	-11.3034
▁அப	-11.3036
none	-11.3039
▁ஜல	-11.3039
▁இயற்கையாக	-11.3039
▁அறிவிப்பு	-11.304
கென்	-11.3043
இரும்பு	-11.3043
▁மின்சாரம்	-11.3043
ஸ்டோ	-11.3048
▁பெருமளவில	-11.305
cinema	-11.305
Kar	-11.305
▁மறைவு	-11.3051
▁பெயருடைய	-11.3051
▁பொதி	-11.3051
▁மன்னார்குடி	-11.3052
▁மாவு	-11.3052
▁Plant	-11.3053
▁பெங்களூரில்	-11.3053
▁எழுதியிருந்தார்	-11.3056
ீட்டு	-11.3056
▁கப்பல	-11.3057
▁நகராட்சிகள்	-11.306
▁அர்த்த	-11.306
▁இலக்கியத்தில்	-11.3063
▁மருந்தாக	-11.3064
▁வானிலை	-11.3065
▁காலத்தை	-11.307
பாட்டு	-11.3071
been	-11.3072
▁(15	-11.3073
ுணர்வு	-11.3074
▁அவதார	-11.3074
def	-11.3074
ரூர்	-11.3075
டைன்	-11.3076
dis	-11.3077
dh	-11.3078
▁வைப்ப	-11.3081
▁விழு	-11.3083
names	-11.3085
ட்டார்	-11.3086
~	-11.3088
▁உடன்படிக்கை	-11.3088
விஜய்	-11.3088
▁சஞ்சய்	-11.3089
வாசக	-11.3089
▁திருக்குறள்	-11.3089
▁ஆடித்திருவிழா	-11.3089
▁வாய்பாடு	-11.3089
▁சூட்டப்பட்டது	-11.3091
நாதசுவாமி	-11.3093
▁கடவு	-11.3094
சனை	-11.3095
▁வர்க்க	-11.3096
▁சின்னங்கள்	-11.3097
▁உயிரணு	-11.3098
▁பேட்டை	-11.3098
▁பதக்க	-11.3098
▁அமுத	-11.3098
▁பர்மா	-11.3101
▁மங்கல	-11.3102
நெறி	-11.3104
:1953	-11.3104
▁like	-11.3105
eb	-11.3105
▁வரையறுக்கப்பட்ட	-11.3108
▁Ali	-11.3109
mani	-11.3109
வனூர்	-11.3111
lum	-11.3114
star	-11.3116
பாலன்	-11.3118
default	-11.3119
▁விக்கிபீடியா	-11.3119
▁மர்ம	-11.3121
காந்தி	-11.3122
தனிமங்கள்	-11.3123
▁Chemical	-11.3125
▁பாம்ப	-11.3126
▁நிலநடுக்கம்	-11.3126
▁திருமுறை	-11.3126
▁வெள்ளிக்கிழமை	-11.3126
▁திட	-11.3127
ணன்	-11.313
▁கோவிலில்	-11.3131
ங்களைத்	-11.3132
▁கனிமமாக	-11.3133
டால்	-11.3133
▁mo	-11.3134
▁கடலை	-11.3135
முகி	-11.3136
▁குழுமத்தின்	-11.3138
:1958	-11.3141
▁மொழிபெயர்க்க	-11.3141
▁Award	-11.3145
தங்க	-11.3146
jo	-11.3146
▁1896	-11.3147
lai	-11.3149
ஜார்க்கண்ட	-11.3152
▁227	-11.3152
▁போக்கு	-11.3152
▁Krishna	-11.3153
▁அழைக்கின்றனர்	-11.3156
:1951	-11.3156
▁மாட்டு	-11.3157
திருச்சூர்	-11.3158
▁நெல்லி	-11.3159
▁செரி	-11.316
யத்	-11.3161
▁Women	-11.3162
▁நிலைக்கு	-11.3163
கொல்லை	-11.3164
▁ஞாயிற்றுக்கிழமை	-11.3165
▁வெற்றிகரமாக	-11.3165
▁இயக்குனர்கள்	-11.3165
▁காப்பாற்ற	-11.3166
▁சந்தி	-11.3166
க்குழி	-11.3167
ின்ற	-11.3167
க்கெ	-11.3168
ூரி	-11.3169
▁சாதன	-11.3169
▁அறிவித்த	-11.3169
ங்களைச்	-11.317
▁வாழிட	-11.3172
ப்பிட	-11.3172
வலசு	-11.3175
▁வரம்பு	-11.3177
-0	-11.3178
▁இரவி	-11.3179
▁result	-11.3179
ble	-11.3181
ew	-11.3182
▁தனித்தனி	-11.3183
▁செய்யலாம்	-11.3183
▁பாலு	-11.3183
▁""	-11.3183
▁பண்ண	-11.3183
▁திம்ம	-11.3187
▁மரணம்	-11.3188
▁நிக்	-11.3189
▁செய்திகளை	-11.3191
▁1,4	-11.3196
ருக்க	-11.3199
கணிதம்	-11.32
▁103	-11.3201
▁author	-11.3201
BE	-11.3202
▁சுப்பையா	-11.3204
▁படத்தொகுப்பு	-11.3204
▁(1997)	-11.3204
உங்களுக்குத்	-11.3205
▁கருதுகின்றனர்	-11.3205
▁பட்டதாரி	-11.3205
செட்	-11.3206
▁At	-11.3207
▁கேட்	-11.3211
கோடி	-11.3212
▁இணைந்தார்	-11.3212
▁நாயக்க	-11.3212
alam	-11.3213
▁@	-11.3216
▁art	-11.3218
மையான	-11.3218
▁reference	-11.3218
▁பொற்	-11.3219
▁கொண்டே	-11.3219
▁மனம்	-11.322
▁சரியாக	-11.3221
▁நண்டு	-11.3221
▁பயன்பாடுகள்	-11.3223
▁வலைய	-11.3226
last	-11.3227
ili	-11.3228
eds	-11.3229
)1985	-11.3229
▁பழக்க	-11.323
▁179	-11.323
▁Number	-11.3231
திசை	-11.3231
alai	-11.3232
▁தாண்ட	-11.3232
பஞ்ச	-11.3234
run	-11.3234
▁காற்பந்தாட்ட	-11.3235
▁சிக்கி	-11.3236
சல்பேட்டு	-11.3236
மாநிலங்களவை	-11.3237
மாகப்	-11.3237
▁இம்மலை	-11.3238
ock	-11.3238
சீனா	-11.3239
▁தரவுத்தள	-11.324
▁தும்	-11.324
▁மெக்சிக்கோ	-11.324
▁தழுவி	-11.3241
meter	-11.3241
▁இராச்டிர	-11.3242
Or	-11.3243
▁கோரிக்கை	-11.3243
▁யூனியன்	-11.3244
/3	-11.3244
▁விவசாயிகள்	-11.3245
▁Bas	-11.3245
றே	-11.3246
▁1918	-11.3246
frameless	-11.3248
▁பட்டப்	-11.3253
ிருந்தாலும்	-11.3253
▁இடையேயான	-11.3254
சிசு	-11.3254
விவரிக்கப்பட்டது	-11.3256
▁உத்தரபிரதேச	-11.3256
▁மருத்துவத்தில்	-11.3256
▁அதிகாரபூர்வ	-11.3258
▁பிளவு	-11.326
தாசன்	-11.3261
BA	-11.3262
▁சமன்பாடு	-11.3262
▁என்ப	-11.3263
▁புரூ	-11.3263
▁மிஸ்	-11.3263
▁எபிரேய	-11.3264
▁நாளாக	-11.3271
ின்படி	-11.3273
▁கோட்பாடுகள்	-11.3273
600	-11.3274
Image	-11.3275
▁நாணயம்	-11.3276
▁பக்கத்தை	-11.3277
Ad	-11.3279
ிகை	-11.3279
▁மகசூல்	-11.3281
NCAT	-11.3281
IDDE	-11.3281
▁ராமன்	-11.3282
▁செய்வதற்கு	-11.3282
▁நடைபெறுகின்றன	-11.3282
▁காணும்	-11.3282
பருவ	-11.3283
▁நோக்கிய	-11.3284
rie	-11.3286
▁பெயர்களாலும்	-11.3288
ாி	-11.329
▁எப்போதும்	-11.3292
ப்பிற்கு	-11.3293
▁பசி	-11.3296
ste	-11.3296
▁திரும்பி	-11.3296
3)2	-11.3297
அரு	-11.3298
▁தாவரமாகும்	-11.3299
▁பிரே	-11.33
▁எரிபொருள்	-11.3301
குட	-11.3301
▁செய்யுள்	-11.3305
ase	-11.3306
▁நத்தம்	-11.3307
▁பேரவையின்	-11.3311
12%	-11.3311
ொன்று	-11.3314
▁நிகழ்வுகளை	-11.3314
▁கஞ்ச	-11.3316
▁Chem	-11.3317
kat	-11.3318
▁பெறப்பட்ட	-11.3318
▁உத்தி	-11.3318
Bangladesh	-11.332
▁விண்டோஸ்	-11.332
▁கையேடு	-11.332
|{{#	-11.332
▁திறனாய்வு	-11.332
Krishnagiri	-11.3321
ந்தியா	-11.3321
▁ஊராகும்	-11.3322
பதிப்பாசிரியர்	-11.3322
▁உணவுப்	-11.3323
▁அரியணை	-11.3323
ப்படுத்திய	-11.3323
▁ஜெய்ப்பூர்	-11.3324
▁உறுப்பினரான	-11.3326
▁வெண்ணிற	-11.3328
mag	-11.3328
அல்	-11.333
ம்பூண்டி	-11.3331
▁பெண்ணை	-11.3333
arg	-11.3334
Ga	-11.3335
▁தற்காலிக	-11.3335
IL	-11.3336
sort	-11.3337
▁சூத்திர	-11.3338
ாசிரியர	-11.3339
▁தடித்த	-11.334
▁1899	-11.334
▁அம்பு	-11.3341
ப்படுத்துகிறது	-11.3342
reg	-11.3342
▁போர்ட்	-11.3346
சந்த்	-11.3349
▁நிலங்கள்	-11.3349
▁Caste	-11.3352
mor	-11.3352
ஜெய்சங்கர்	-11.3355
▁Article	-11.3359
▁Foundation	-11.3359
▁Office	-11.3359
▁மாலி	-11.336
▁Other	-11.3361
யாக்கம்	-11.3363
▁மகாராஜா	-11.3363
▁யாழ்ப்பாணத்தில்	-11.3363
▁ஆவணப்பட	-11.3363
▁டைம்	-11.3364
▁பிரமிடு	-11.3364
▁நோக்கியும்	-11.3364
கண்ண	-11.3366
▁area	-11.3367
▁ஆனை	-11.3368
▁கூறுவர்	-11.3369
பத்ம	-11.3371
காந்த்	-11.3373
▁லட்ச	-11.3373
ளிக்க	-11.3377
▁முப்பரிமாண	-11.3378
:1955	-11.3378
சின்ன	-11.3378
▁ஆண்டுக்கு	-11.338
Ha	-11.3381
spect	-11.3383
▁இவ்விரு	-11.3384
▁Fr	-11.3385
▁Comp	-11.3385
போர்டு	-11.3386
கவி	-11.339
▁குச்சி	-11.3391
▁தொழிலதிபர்கள்	-11.3392
ij	-11.3398
▁தென்கிழக்கே	-11.3399
▁இக்கோயிலுக்கு	-11.3399
▁ஆகியோருடன்	-11.3399
▁போர்னியோ	-11.34
ராங்	-11.34
▁Jan	-11.3401
▁மாறுகிறது	-11.3402
ப்பிடி	-11.3404
ஸ்கா	-11.3406
vil	-11.3406
▁1904	-11.3406
▁இக்கோட்டை	-11.3407
▁கம்பனி	-11.3407
▁கனசதுர	-11.3408
1952	-11.3408
▁அடியில்	-11.3409
▁பாண	-11.341
▁சமயத்தினர்	-11.3412
▁அடிப்படையிலான	-11.3412
டோனி	-11.3412
▁இவ்வா	-11.3412
▁அறுவடைக்கு	-11.3412
▁found	-11.3414
▁இடம்பெறும்	-11.3414
▁there	-11.3416
டியன்	-11.3417
▁முளை	-11.342
த்தினர்	-11.3421
:2017	-11.3422
:1991	-11.3423
▁Bur	-11.3424
▁தியான	-11.3424
ஜெய	-11.3425
வர்களை	-11.3427
sil	-11.3427
நைட்ரோ	-11.3429
▁சுங்க	-11.3432
▁0.3	-11.3432
▁வயதுக்கு	-11.3436
▁நிறைவடைந்த	-11.3438
▁சண்டிகேஸ்வரர்	-11.3438
▁~=	-11.3438
▁வல்லுநர்	-11.3439
▁தங்கி	-11.3442
▁தெரிய	-11.3442
காட்சி	-11.3443
▁தொன்ம	-11.3444
சிறீ	-11.3445
▁சித்தா	-11.3447
-14	-11.3449
▁குறிப்பிடும்	-11.345
▁சேர்மத்தின்	-11.345
▁மாநாடுகள்	-11.3451
ில	-11.3451
▁திருமால்	-11.3452
▁வீரன்	-11.3454
▁நிலநடுக்க	-11.3457
யாய்	-11.3462
▁சேகர்	-11.3462
ரம்ப	-11.3463
க்கப்பட்டுள்ளன	-11.3463
▁பெயரும்	-11.3463
▁மதத்தை	-11.3465
▁Da	-11.3466
▁வரைய	-11.3468
ியம்மன்	-11.3469
▁பகிர	-11.347
cell	-11.3471
▁நடத்தும்	-11.3471
▁இடு	-11.3472
▁காங்கோ	-11.3475
▁தீர்	-11.3476
சாலா	-11.3476
செய்த	-11.3476
▁கட்	-11.3477
▁பேராசிரியராகப்	-11.3478
▁மானாமதுரை	-11.3478
▁மைக்ரோ	-11.3478
ஜூ	-11.3478
times	-11.3479
▁சேதுபதி	-11.3479
பிரான்	-11.3479
சௌ	-11.3479
▁அங்குள்ள	-11.3479
odi	-11.3481
▁வாழ்த்து	-11.3482
குரி	-11.3483
வண்டி	-11.3483
▁அரசுக்கு	-11.3483
▁மாஸ்டர்	-11.3484
▁பகல்	-11.3484
▁தாங்க	-11.3485
▁விய	-11.3486
ப்பற்றி	-11.3487
▁பீம்	-11.3487
ever	-11.3488
யப்பன்	-11.3488
டியோ	-11.3492
▁சென்னையின்	-11.3495
▁பொதுத்துறை	-11.3496
oxide	-11.3498
▁நெல்லை	-11.3499
ண்டில்	-11.35
▁α	-11.35
ேச	-11.3501
▁1500	-11.3501
கோட்டா	-11.3502
now	-11.3502
அரசியல்	-11.3503
▁Human	-11.3503
ரட்	-11.3504
▁தண்ணீரை	-11.3506
தாலும்	-11.3508
▁சக்கரம்	-11.3513
ாக்கி	-11.3513
▁எல்லாம்	-11.3513
▁ஒருங்கிணைப்பு	-11.3515
▁கடமை	-11.3515
▁மின்னணுவியல்	-11.3516
infobox	-11.3517
▁Airport	-11.3518
▁கேம்	-11.3518
▁ro	-11.3518
▁முன்பாக	-11.352
▁பெருங்கடலில்	-11.3521
யிரு	-11.3525
▁அகவையில்	-11.3525
▁பழங்குடியினர	-11.3526
▁ஜார்க்கண்ட	-11.3526
pg	-11.3528
ாவிலிருந்து	-11.3528
▁மூன்ற	-11.3529
ப்படுகின்றனர்	-11.3529
▁திகில்	-11.353
▁im	-11.353
▁பன்றி	-11.3532
▁நிகழ்ச்சிகளை	-11.3534
செல்ல	-11.3535
▁இந்தியர்கள்	-11.3535
000000	-11.3537
▁கமல	-11.3538
▁பிலா	-11.3539
▁வீரபாண்டி	-11.3539
ott	-11.354
oll	-11.354
▁தினம்	-11.3541
தீப்	-11.3545
▁பாட்னா	-11.3546
▁பெண்மணி	-11.3546
▁வலிமையான	-11.3548
▁ஆரோகண	-11.3548
பக்	-11.355
▁மேற்பார்வை	-11.3551
▁இரத்தின	-11.3551
▁அண்ண	-11.3552
▁ஆசியாவின்	-11.3552
▁தாளம்	-11.3553
▁09	-11.3554
Un	-11.3556
ky	-11.3556
வொ	-11.3556
திருப்பத்தூர்	-11.3557
▁படுகிறது	-11.3557
▁கூட்டமைப்பின்	-11.3558
▁ஞாயிறு	-11.3558
▁சீசியம்	-11.356
)3	-11.3561
▁கேப்டன்	-11.3562
த்திற	-11.3562
string	-11.3562
▁கற்றார்	-11.3563
▁தீர்மானிக்க	-11.3564
illa	-11.3567
▁ஆங்கிலப்	-11.3567
self	-11.3569
கின்றனர்	-11.3569
▁மூஞ்சூறு	-11.357
சுகி	-11.357
▁எழுதப்பட்டது	-11.3572
▁values	-11.3573
செய்யப்படுகின்றன	-11.3576
kha	-11.3578
யோக	-11.3578
▁1898	-11.3578
ுயிரி	-11.3578
|}}{{#	-11.3579
▁குரோமியம்	-11.3581
▁கிண்ண	-11.3581
▁பெயரிட	-11.3587
berg	-11.3587
▁பாக்டீரியா	-11.3588
▁பதின்மூன்றா	-11.3589
Pro	-11.359
▁Mc	-11.3594
1.5	-11.3596
னொ	-11.3596
▁சுப்பிரமணியம்	-11.3597
▁பலா	-11.3597
▁நடைபெற்று	-11.3598
▁different	-11.3598
▁ஒன்பதாம்	-11.3598
▁கம்பெனி	-11.3598
வேண்டிய	-11.3598
▁வைரமுத்து	-11.3598
▁Review	-11.3599
▁மகன்கள்	-11.36
▁தோற்கடித்து	-11.3602
)60	-11.3603
ez	-11.3603
|1	-11.3605
▁ஏற	-11.3605
1987	-11.3605
▁நிலைப்புத்தன்மை	-11.3605
▁அனல்	-11.3606
▁China	-11.3606
▁182	-11.3611
▁தொடர்ப	-11.3611
▁அண்ணாநகர்	-11.3611
▁அபு	-11.3612
▁பிரபா	-11.3612
iyan	-11.3614
▁ஒன்றியத்துக்கு	-11.3614
▁கட்டிடக்	-11.362
wood	-11.3624
ாயிற்று	-11.3625
லான	-11.3625
குடா	-11.3632
இந்தித்	-11.3634
:6	-11.3634
▁இடம்பெற்றுள்ளன	-11.3635
▁வெங்கடேச	-11.3636
▁மேலதிக	-11.3638
நொ	-11.3638
▁தற்கொலை	-11.3638
▁மாறுபட்ட	-11.3639
▁மகனான	-11.3639
▁போன்றவற்றில	-11.3641
வாள்	-11.3641
▁மாந்தர்	-11.3641
நடிகர்	-11.3643
▁நலன்	-11.3644
▁Pre	-11.3645
▁சாகச	-11.3647
:2020	-11.3648
ிருக்கின்றன	-11.3648
▁வெண்கல	-11.365
tham	-11.365
▁பிணை	-11.365
▁இலவச	-11.3651
▁வரவேற்பு	-11.3652
▁ஒளியியல்	-11.3652
▁நற்றிணை	-11.3661
▁நினைவுச்	-11.3661
காவு	-11.3662
▁நவாப்	-11.3662
yana	-11.3662
▁இயக்குநர	-11.3664
▁மகாராஷ்டிரா	-11.3668
▁112	-11.3669
பேட்	-11.367
▁கூற்று	-11.3672
▁முதலமைச்சராக	-11.3676
▁மருந்துகள்	-11.3676
▁விரும்பி	-11.3676
களுக்குள்	-11.3678
′	-11.3678
▁தென்மேற்கே	-11.3679
தென்னிந்தியாவின்	-11.3679
▁மார்க்க	-11.3679
▁குப்பம்	-11.368
science	-11.368
MC	-11.3681
▁வொ	-11.3681
▁உகந்த	-11.3682
ப்ரோ	-11.3684
▁IUCN	-11.3685
▁இம்மாவட்டத்தில்	-11.3686
▁ஆள்	-11.3688
▁சரத்	-11.3688
கிராம்	-11.3689
▁எழுதியவர்	-11.3689
பந்து	-11.3691
▁படிப்புகளை	-11.3692
▁0.6	-11.3692
▁தயா	-11.3692
▁கோட்டயம்	-11.3692
▁உடலை	-11.3694
▁வினையின்	-11.3694
free	-11.3696
▁விமர்சன	-11.3697
▁retrieved	-11.3697
ஜ்ஜ	-11.3698
▁ஷெ	-11.3698
ல்லாத	-11.3699
▁திபெத்திய	-11.3699
▁113	-11.3704
▁volume	-11.3705
▁பேசி	-11.3705
▁121	-11.3706
▁வேற்றுமை	-11.3707
▁தவிர்க்க	-11.3707
ப்பாளர்	-11.3708
ட்டெ	-11.3708
▁தேவதை	-11.3711
▁முகமை	-11.3715
யத்திலிருந்து	-11.3715
▁மேற்பரப்பு	-11.3716
101	-11.3716
▁அஜ	-11.3718
▁கிரீன்	-11.3718
▁வர்த்தமான	-11.3719
▁எலக்ட்ரான்	-11.372
▁ஆலங்குடி	-11.3722
lia	-11.3723
யம்பட்டி	-11.3723
▁தாமசு	-11.3723
Title	-11.3723
▁video	-11.3724
▁தாக்குதல்கள்	-11.3725
ிருப்பது	-11.3726
▁காப்பகங்கள்	-11.3726
▁பாராட்டு	-11.3727
ாம்பிகை	-11.3728
மிர்	-11.3729
▁சிபி	-11.3729
▁சிம்ம	-11.3729
▁ஆனி	-11.3729
▁பத்தி	-11.373
add	-11.373
ுகிற	-11.3731
graph	-11.3733
▁சுருள்	-11.3734
▁கிறிஸ்	-11.3734
▁காப்பக	-11.3736
abad	-11.3736
▁படுகொலைகள்	-11.3736
▁கதாபாத்திரங்கள்	-11.3737
▁கற்று	-11.3739
RO	-11.3739
▁குக்	-11.3739
asa	-11.374
▁பச	-11.3741
காளி	-11.3742
▁நெகிழி	-11.3742
▁கிரெ	-11.3742
-->	-11.3743
▁திறனை	-11.3745
வளவு	-11.3746
▁file	-11.3746
▁தொண்டு	-11.3747
ப்பெற	-11.3748
ாம்பாளையம்	-11.3749
பீர்	-11.3749
All	-11.3749
▁உறுப்புக்	-11.3749
▁அக்கா	-11.375
▁அவள	-11.3751
▁சிர்	-11.3755
▁வழக்கமான	-11.3756
ைல்	-11.3757
madhya	-11.376
▁இடமாகும்	-11.376
▁ஏற்கனவே	-11.376
▁between	-11.376
▁thumbnail	-11.3762
த்திற்குள்	-11.3763
▁சதவீதமான	-11.3763
கிரக	-11.3764
▁கட்டமைப்ப	-11.3765
த்தள	-11.3765
ified	-11.3765
-2011	-11.3766
ேற்றம்	-11.3767
▁காரை	-11.3767
ress	-11.3768
ப்பட்டவர்	-11.377
/50	-11.3771
hol	-11.3771
total	-11.3772
▁ஆதரவ	-11.3774
▁நிறப்	-11.3775
▁டிரா	-11.3775
▁குளிர்கால	-11.3778
▁நிர்ணய	-11.3779
Jo	-11.3779
▁கற்ப	-11.3783
▁முனையில்	-11.3783
▁சீனம்	-11.3785
gram	-11.3786
டுக்கு	-11.3786
MO	-11.3787
படு	-11.3788
▁விதிகள்	-11.3789
▁காண்ப	-11.3791
மியம்	-11.3794
▁பட்டியல	-11.3795
▁கடி	-11.3796
▁கெர்	-11.3796
▁புலனாய்வு	-11.3801
▁சதுர்த்தி	-11.3801
▁இராட்டிர	-11.3801
▁நாளன்று	-11.3802
▁போஸ்	-11.3802
▁கமலா	-11.3802
▁கிரக	-11.3802
2+	-11.3803
தொழில்நுட்ப	-11.3804
William	-11.3804
▁−	-11.3805
▁செலுத்தி	-11.3805
மகாபாரத	-11.3806
▁Language	-11.3807
களாகக்	-11.3812
ுவதும்	-11.3814
▁பாடலில்	-11.3815
▁1890	-11.3818
▁கத்தி	-11.3818
tag	-11.3819
கேசு	-11.3819
▁பூர்வ	-11.3819
▁ஆமை	-11.382
▁சாத்திர	-11.382
▁வளர்ப்ப	-11.3821
▁Google	-11.3822
▁செயல்பாடுகள்	-11.3824
Tr	-11.3828
▁உல்	-11.3829
பாடல்	-11.3833
▁யூரோ	-11.3838
கட்டி	-11.3839
▁மார	-11.3839
மூலிகைகள்	-11.3842
▁ஆயிரமாண்டு	-11.3842
▁ஏழாவது	-11.3842
▁அந்தோனி	-11.3843
pot	-11.3843
▁வீரராவார்	-11.3844
125	-11.3846
யாபுரம்	-11.3849
▁செருமனி	-11.385
▁அப்துல்லா	-11.3851
▁விள	-11.3852
▁சரக்கு	-11.3852
▁இலக்கியங்கள்	-11.3852
பன	-11.3853
1,1	-11.3855
stan	-11.3855
▁Bh	-11.3856
dge	-11.3859
▁படப்பிடிப்பு	-11.3859
▁பாய்ம	-11.386
▁j	-11.3862
▁நாசா	-11.3862
cap	-11.3863
சுத்தான்	-11.3864
▁இடத்திற்கு	-11.3865
த்திரா	-11.3868
▁அறியப்பட்டது	-11.387
anch	-11.3872
▁பாசுபரசு	-11.3877
நாதபுரம்	-11.3878
வர்தன	-11.3878
▁ஜெமினி	-11.388
▁கணிதத்தில்	-11.3881
▁அரோமாட்டிக்	-11.3884
▁எதிர்பார்க்க	-11.3884
ere	-11.3884
▁ஆழ்வார்	-11.3884
▁உடல்நல	-11.3884
▁இந்நெல்	-11.3885
▁திறந்தவெளி	-11.3885
▁பரமக்குடி	-11.3885
ustring	-11.3885
▁உரோ	-11.3886
▁எழுத்துலக	-11.3886
புள்ளி	-11.3887
▁இடம்பெற்றது	-11.3887
▁சூர்யா	-11.3888
140	-11.3888
▁ஒட்டு	-11.3888
▁ஒப்பு	-11.3889
▁ஃபா	-11.3889
50,000	-11.3892
▁வெளியீட்டு	-11.3892
tre	-11.3892
▁மயக்க	-11.3899
▁உருவாகின்றன	-11.3899
சுவ	-11.3899
▁சமூகத்தின்	-11.3901
▁அலோ	-11.3902
ரையும்	-11.3904
▁ஐதராபாத்து	-11.3905
தைப்	-11.3906
வேதா	-11.3907
▁அமராவதி	-11.3909
yam	-11.391
▁ஆண	-11.3912
▁கொண்டாட்ட	-11.3912
▁நிற்கும்	-11.3912
▁Bengal	-11.3914
▁இறக்க	-11.3915
'],	-11.3917
▁Hill	-11.3917
▁கிரீ	-11.3917
▁படிவு	-11.392
IM	-11.3922
▁கவன	-11.3924
ser	-11.3925
▁உத்திரமேரூர்	-11.3925
▁திருக்கோவில்	-11.3925
▁Express	-11.3925
▁மாதவ	-11.3926
▁அண்ணாமலை	-11.3926
▁114	-11.3926
▁ஜெர்மானிய	-11.3927
யிக்	-11.3927
url	-11.3929
அன்	-11.393
உறுப்பினர்	-11.393
▁ஆக்சிசனேற்றம்	-11.3931
▁கடத்த	-11.3932
ope	-11.3932
▁வித்தியாலயம்	-11.3933
வாஸ்	-11.3933
▁அக்காலத்தில்	-11.3935
▁Fair	-11.3936
▁துன்ப	-11.3941
▁பட்டய	-11.3943
▁மாகாணங்களில்	-11.3944
▁இயற்றப்பட்ட	-11.3944
▁தாயகமாக	-11.3945
▁படங்களை	-11.3946
▁செயலாக்க	-11.3947
▁இரக	-11.3947
▁சமமான	-11.3948
ுகிறாள்	-11.3948
நட	-11.3949
1.2	-11.3949
▁(6	-11.395
ங்குறிச்சி	-11.3955
orn	-11.3955
▁mark	-11.3958
dom	-11.3959
கோவை	-11.3959
eck	-11.3959
ional	-11.396
▁கோயிலை	-11.396
றல்	-11.396
vid	-11.3962
▁எந்திர	-11.3964
▁பொறியாளர்	-11.3964
ுநர்	-11.3965
▁கப்பல்கள்	-11.3965
▁காளை	-11.3965
▁கிளிநொச்சி	-11.3966
▁ஏறக்குறைய	-11.3967
105	-11.3968
Har	-11.3968
▁முடிந்தது	-11.3968
▁மனிதர்கள்	-11.3969
▁ஆளு	-11.3969
குண	-11.397
▁எடுப்ப	-11.3971
▁அம்மை	-11.3972
bor	-11.3973
ஸ்வர	-11.3974
▁இலண்டனில்	-11.3975
nth	-11.3977
▁மருந்த	-11.3978
▁நோர்வே	-11.3979
குல்	-11.398
▁அண்ணன்	-11.398
▁பருவத்தில்	-11.3982
lore	-11.3982
tom	-11.3982
ிரு	-11.3982
long	-11.3988
▁அறநிலையத்	-11.3988
ரத்தின	-11.3988
▁இராச்சியத்தில்	-11.3989
▁சுவாமிகள்	-11.399
▁Kingdom	-11.399
▁இதைப்	-11.3991
▁இருபதுக்கு	-11.3992
▁years	-11.3993
▁வளர்ச்சித்	-11.3993
டாரி	-11.3993
▁அரிதாக	-11.3996
lim	-11.3996
▁திட்டமிடப்பட்ட	-11.3997
▁கல்வியும்	-11.3998
▁பூட்டான்	-11.3998
▁சசி	-11.4002
▁தொடர்களில்	-11.4003
:2019	-11.4004
அடி	-11.4006
▁178	-11.4006
▁நபர	-11.4007
-04-	-11.4009
Statistical	-11.4009
▁திருவிடைமருதூர்	-11.4009
▁பௌர்ணமி	-11.4009
▁புக்கிட்	-11.4009
▁web	-11.4009
:1941	-11.4009
mission	-11.4009
▁கிடைக்கின்றன	-11.4009
▁உலை	-11.401
▁(1998)	-11.401
பொருட்கள்	-11.4011
▁நெஞ்ச	-11.4011
▁காடி	-11.4012
▁குறும்பட	-11.4012
4,000	-11.4012
▁அமர்ந்த	-11.4013
▁அம்பிகா	-11.4013
▁பெரியது	-11.4013
▁வட்டணை	-11.4013
▁பௌத்தர்கள்	-11.4015
field	-11.4015
▁trans	-11.4015
▁போராளி	-11.4016
யிய	-11.4016
மாற்று	-11.4022
▁அலக	-11.4022
Ed	-11.4024
raja	-11.4024
▁காவிய	-11.4025
atha	-11.4026
▁சொத்து	-11.4026
pri	-11.4027
▁வெளியீடுகள்	-11.4027
▁மோத	-11.4027
▁இதற்காக	-11.4028
▁ஏற்று	-11.4028
நாடக	-11.4029
ோலி	-11.4031
▁நிரந்தர	-11.4031
via	-11.4032
ுவதாகும்	-11.4034
▁Ri	-11.4037
▁ஒப்ப	-11.4039
ese	-11.404
ச்சில்	-11.4043
▁above	-11.4045
▁பாண்டவர்	-11.405
administrative	-11.4051
▁இறுதிப்	-11.4051
▁சிட்னி	-11.4051
▁வரதராஜபெருமாள்	-11.4051
▁பார்வோன்	-11.4051
▁சார்ல்ஸ்	-11.4051
▁தலைநகரமாக	-11.4053
▁எசுத்தர்	-11.4053
▁பொட்ட	-11.4054
▁such	-11.4054
வெள்ளீய	-11.4055
weight	-11.4057
▁104	-11.406
▁மாற்றங்கள்	-11.4062
▁ஏற்படுத்தும்	-11.4063
▁புதுப்பிக்க	-11.4064
zi	-11.4065
▁முழுமை	-11.4067
தொரு	-11.4067
▁resolution	-11.4068
▁பிரை	-11.4069
▁தன்மையை	-11.4072
▁நகைச்சுவைத்	-11.4072
▁ஏற்றி	-11.4072
▁மச்ச	-11.4073
Ke	-11.4074
▁உப்புகள்	-11.4076
▁கார்பன	-11.4076
▁மாதங்களில்	-11.4077
▁கையில்	-11.4077
▁பாகிஸ்தான	-11.4078
▁கௌதம	-11.4078
SP	-11.4081
▁ஆர்வ	-11.4082
ுறு	-11.4083
பார	-11.4083
▁ad	-11.4084
▁119	-11.4084
▁சாத்திய	-11.4084
part	-11.4086
▁இசைத்	-11.4086
▁அடர்ந்த	-11.4086
னிடே	-11.4086
▁பிரதமராக	-11.4088
vision	-11.4088
bul	-11.4091
sum	-11.4092
▁கம்யூனிஸ்ட்	-11.4093
▁முற்போக்கு	-11.4093
Gu	-11.4093
▁caption	-11.4093
fish	-11.4094
▁மரப	-11.4096
▁போளூர்	-11.4096
▁தலைநகரமும்	-11.4097
▁இவற்றுள்	-11.4098
▁முத்துராமன்	-11.4099
▁Black	-11.41
ஆஸ்திரேலிய	-11.4101
▁பூஞ்சை	-11.4101
செந்தில்	-11.4102
yer	-11.4102
எதிர்	-11.4102
நீலகிரி	-11.4102
▁வந்தன	-11.4103
▁பாக்கித்தானின்	-11.4105
▁புத்தகங்களை	-11.411
BC	-11.4111
னுடைய	-11.4112
ப்பிள்	-11.4113
▁பகுதியிலும்	-11.4113
▁செப்பு	-11.4115
▁நற்செய்தி	-11.4116
▁கேசவ	-11.4117
▁சமணர்கள்	-11.4117
▁சுவாச	-11.4118
bs	-11.4118
த்தினைச்	-11.4118
▁வேகம்	-11.4119
டைந்த	-11.4119
▁தீபகற்ப	-11.4121
▁விரிவாக	-11.4121
Ram	-11.4121
▁சிந்தி	-11.4121
ிடை	-11.4122
தானம்	-11.4122
றோ	-11.4123
▁பரிமாற	-11.4124
குட்டை	-11.4125
▁கருதப்படுகின்றன	-11.4125
▁பிஜி	-11.4125
▁இத்தொகுதியில்	-11.4127
▁Hall	-11.4128
3(	-11.4128
யிட்ட	-11.4131
▁செறி	-11.4132
▁பிரபந்த	-11.4133
▁(12	-11.4133
▁Pol	-11.4134
revenue	-11.4135
▁பிந்தைய	-11.4135
▁இரசாயன	-11.4137
4.5	-11.4137
▁பாலக்கோடு	-11.4138
▁அமைகிறது	-11.4138
das	-11.4138
7.5	-11.4141
▁அய்	-11.4141
▁வில்லி	-11.4142
▁மணிய	-11.4142
▁போற்றி	-11.4142
:2009	-11.4142
ொடு	-11.4143
▁சீதை	-11.4143
▁House	-11.4144
▁1916	-11.4147
▁Chandra	-11.4148
▁கட்டுரைகளில்	-11.4149
▁கோட்டா	-11.415
க்காலம்	-11.4151
▁பிரச்சினை	-11.4152
−1	-11.4153
▁ஜெயலலிதா	-11.4154
▁தெரிவித்த	-11.4154
▁பழங்குடியின	-11.4154
▁கதாப்பாத்திரம்	-11.4155
▁அளக்க	-11.4157
▁உரோமன்	-11.4158
க்கலாம்	-11.4158
TN	-11.4159
▁சால	-11.4159
▁குடியிருப்புகள்	-11.4159
ாலேயே	-11.4159
▁பாடல்களில்	-11.416
கரன்	-11.416
▁தூக்கி	-11.4161
▁குளோரோ	-11.4162
க்கழகம்	-11.4164
▁வார்டுகள்	-11.4165
ஞ்ஞ	-11.4165
வனின்	-11.4165
ாம	-11.4166
;">	-11.417
▁ru	-11.417
▁தட்ப	-11.4173
hor	-11.4173
சிறப்பு	-11.4175
▁பிரீமியர	-11.4178
▁பாச	-11.4179
▁கன்னிமார்	-11.4179
னிஸ்	-11.418
upload	-11.4181
ப்படுவதால்	-11.4181
▁விடுமுறை	-11.4181
▁பங்கேற்றார்	-11.4182
▁அக்பர்	-11.4183
▁இச்சேர்மத்தை	-11.4184
▁மூச்சு	-11.4184
:1992	-11.4184
▁Planet	-11.4185
▁தாமிர	-11.4185
▁go	-11.4187
ஏப்ரல்	-11.4188
▁பொருந்த	-11.4188
▁வழிநடத்த	-11.4189
▁செயல்பட்ட	-11.4189
ுமாவார்	-11.4189
▁116	-11.4189
க்கண்	-11.419
பாலக்காடு	-11.4191
பிளா	-11.4192
▁ஜீவா	-11.4192
▁வாசனை	-11.4194
ஹீ	-11.4195
▁மெய்யியலாளர்கள்	-11.4196
inter	-11.4198
▁1895	-11.4198
▁குஞ்சு	-11.42
/12	-11.4203
▁ஏறி	-11.4204
▁பரிசை	-11.4205
▁குயில்	-11.4205
▁விவேக்	-11.4206
och	-11.4208
▁இவ்விதழ்	-11.4208
▁People	-11.4209
▁விருதையும்	-11.421
கொரிய	-11.4213
tz	-11.4214
பெங்களூர்	-11.4218
▁ஊக்க	-11.4218
ரங்	-11.4218
▁Royal	-11.4219
▁தென்கிழக்கில்	-11.422
ists	-11.422
▁தரைப்படை	-11.4222
kin	-11.4223
▁நீர்ப்பாசன	-11.4224
angal	-11.4226
Commons	-11.4226
▁பட்டறை	-11.4227
உயிர்வேதியியல்	-11.4228
த்தாள்	-11.4229
▁வரைபடத்தில்	-11.423
▁நெற்பயிர்	-11.423
matic	-11.423
▁வகைபாடு	-11.423
▁நிலைமை	-11.4231
▁இசையை	-11.4231
முன்னாள்	-11.4231
▁வலசை	-11.4232
டெல்லி	-11.4232
[[	-11.4233
▁நீரின்	-11.4235
▁நதியின்	-11.4237
Pla	-11.4239
Sam	-11.424
▁பவன்	-11.4241
▁எஃப்	-11.4241
▁கைபர்	-11.4242
▁பேரில்	-11.4243
▁பிரபலமானது	-11.4243
set	-11.4245
▁நுழை	-11.4245
நீதி	-11.4248
▁நாடி	-11.425
பட்டது	-11.4253
▁நடிகராக	-11.4254
▁கபூர்	-11.4255
▁qu	-11.4256
மைக்காக	-11.4256
▁Devi	-11.426
▁பூர்வீக	-11.4261
▁பெற்றனர்	-11.4262
▁எலிசபெத்	-11.4263
▁பக்துன்வா	-11.4263
▁மதுராந்தகம்	-11.4263
▁இணையாக	-11.4264
▁ஜாவா	-11.4265
▁BBC	-11.4266
▁பிரிந்த	-11.4266
▁தக	-11.4266
▁முடிகிறது	-11.4267
உரு	-11.4267
▁முக்கியக்	-11.4267
லையும்	-11.4268
▁வடமொழி	-11.4269
EN	-11.427
▁தாள்	-11.4273
▁சிரியா	-11.4273
▁விசாகப்பட்டினம்	-11.4273
ராஸ்	-11.4273
மருத்துவம்	-11.4274
rich	-11.4274
:2006	-11.4275
செய்தி	-11.4276
char	-11.4276
ஜனதா	-11.4279
lay	-11.428
▁சமர்	-11.428
▁போட்டியை	-11.4282
ரங்கம்	-11.4282
▁தொடர்ச்சியான	-11.4282
▁எனில்	-11.4284
▁மதன்	-11.4284
▁மெல்ல	-11.4285
▁செமீ	-11.4285
ible	-11.4285
▁சதவீத	-11.4288
டியில்	-11.4289
ரைக்	-11.429
rain	-11.429
:1935	-11.429
▁உறவினர்	-11.429
▁யுவ	-11.4292
▁மகனாக	-11.4293
ella	-11.4295
:1938	-11.4295
▁அழகான	-11.4297
▁கூறுகள்	-11.4298
▁est	-11.43
▁இன்றி	-11.43
▁இருப்புப்	-11.4301
ட்டிக்	-11.4302
கிழ	-11.4302
▁தேயிலை	-11.4303
ature	-11.4304
▁செல்வம்	-11.4305
▁num	-11.4305
▁பாதிப்பு	-11.4306
குந்த	-11.4306
▁பொருண்மை	-11.4307
▁அலெக்சாண்டர்	-11.4307
▁எட்டாவது	-11.4307
▁படக்காட்சி	-11.4307
▁அஜித்	-11.4307
▁நடிப்ப	-11.4308
▁நட்பு	-11.4311
▁வருமான	-11.4313
க்கான்	-11.4313
▁da	-11.4316
▁யுக	-11.4317
யளிக்க	-11.432
iti	-11.4321
▁போர	-11.4322
▁Articles	-11.4322
▁திருவிழாக்கள்	-11.4323
பென்சீன்	-11.4323
▁தாத்தா	-11.4324
serv	-11.4325
▁1882	-11.4327
▁வாகனங்கள்	-11.4327
கெல்	-11.4328
▁அழிந்து	-11.4329
▁Australia	-11.4331
▁சட்டங்கள்	-11.4331
▁மக்கள	-11.4331
▁பிராந்தியத்தில்	-11.4332
▁குழா	-11.4333
▁தெளி	-11.4333
டைல்	-11.4335
▁ஆசி	-11.4336
▁கொடுக்கப்பட்ட	-11.4336
▁இஸ்லாம்	-11.4337
▁கொண்டனர்	-11.4338
▁பீம	-11.434
▁short	-11.4341
▁இத்திரைப்படத்தை	-11.4342
▁சூழலியல்	-11.4343
vis	-11.4344
▁Redirect	-11.4344
கானா	-11.4345
▁மஞ்சு	-11.4345
▁அறியப்படுகின்றன	-11.4346
▁தானுந்து	-11.4346
▁Education	-11.4346
பாக்கித்தானிய	-11.4347
▁குளோரின்	-11.4348
▁ஆய்வக	-11.4349
▁மறுமலர்ச்சி	-11.435
▁வடமேற்கில்	-11.435
▁செயற்பட	-11.435
கவுண்டனூர்	-11.4351
▁விளா	-11.4351
▁பெருங்	-11.4351
▁சாகித்ய	-11.4352
▁தீர்த்தம்	-11.4353
▁அடிவாரத்தில்	-11.4354
▁முட	-11.4354
▁அத்த	-11.4357
▁key	-11.4357
சட்ட	-11.4357
dal	-11.4358
▁நாடுகளை	-11.4359
ique	-11.436
▁கணக்கில்	-11.436
மல்லி	-11.4361
▁துணைப்	-11.4361
▁last	-11.4363
▁ஆந்தை	-11.4363
▁Para	-11.4364
▁they	-11.4364
▁ஆளும்	-11.4365
பிரபு	-11.4366
▁ஆட்சியை	-11.4367
▁பேரரசை	-11.4369
▁நிறைய	-11.437
▁அலா	-11.437
▁change	-11.4371
live	-11.4371
▁ஒளிப்பதிவாளர்	-11.4372
கரிமச்	-11.4373
▁நிறுவனமாக	-11.4375
▁பூச்சிகள்	-11.4375
தில்லை	-11.4376
படுகிறது	-11.4377
மெய்	-11.4378
இராம	-11.4379
▁இராசி	-11.4379
Pe	-11.4381
▁நைட்ரோ	-11.4381
ரைப்	-11.4381
▁வண்டு	-11.4383
▁வியாபார	-11.4384
▁ஓலை	-11.4384
▁vertical	-11.4384
Pu	-11.4385
▁வினைகளில்	-11.4385
cos	-11.4386
▁கணிதவியலாளர்கள்	-11.4386
த்தொடர்	-11.4386
ழா	-11.4386
off	-11.4388
▁இத்துறை	-11.4389
oon	-11.4391
▁விஷ	-11.4392
▁இப்பூங்கா	-11.4394
▁முகலாய	-11.4394
▁சிறப்புகள்	-11.4394
▁Mac	-11.4395
▁accessed	-11.4396
வாகவும்	-11.4396
சேகர	-11.4398
ஹார்	-11.4399
▁பூசாரி	-11.4399
▁நிலக்	-11.4403
▁பெயராகும்	-11.4404
▁குத்து	-11.4404
▁1889	-11.4405
▁நாகாலாந்து	-11.4406
சுந்தர	-11.4406
பென்சோ	-11.441
நிலையில்	-11.441
samy	-11.4414
▁தாக்கிய	-11.4414
▁ஆட்டங்கள்	-11.4414
iva	-11.4416
▁ஆராய்ச்சியாளர்	-11.4417
▁நீக்கி	-11.4417
sia	-11.4417
▁மேஜர்	-11.4419
▁நிரலாக்க	-11.4419
▁Mur	-11.4421
▁சிறுநீர்	-11.4423
▁ஓல்	-11.4424
▁வலிய	-11.4427
▁Bank	-11.4429
▁bar	-11.443
▁Example	-11.4432
▁தில்லை	-11.4432
▁அரபி	-11.4434
▁வாய்ப்பாட்டை	-11.4434
▁பினாங்கு	-11.4435
▁நாட்டுத்	-11.4435
▁யானைகள்	-11.4436
sin	-11.4436
▁118	-11.4437
▁Congress	-11.4437
▁விழிப்புணர்வு	-11.4437
▁கிடையாது	-11.4437
▁ஒற்றுமை	-11.4437
▁துளசி	-11.4437
▁சர்ச்சை	-11.4437
▁காட்டுயிர்	-11.4438
Va	-11.4438
▁மெட்டல்	-11.4439
▁அனா	-11.4439
▁அவ்வாறு	-11.444
துங்க	-11.4441
▁பெருங்க	-11.4442
▁யுரேனியம்	-11.4443
▁Mor	-11.4444
ather	-11.4444
AI	-11.4447
▁களம்	-11.4451
▁Economic	-11.4451
▁வாழ்வியல்	-11.4453
னெல்	-11.4454
னியர்	-11.4454
▁பங்கேற்க	-11.4454
▁இணைக்கப்பட்டு	-11.4456
▁மிதமான	-11.4456
▁குடைவரை	-11.4457
▁மண்டலங்களில்	-11.4457
சூர	-11.4458
மார்க்	-11.4459
▁How	-11.446
▁ஆவணங்கள்	-11.446
▁பேகம்	-11.4461
▁பாங்க	-11.4461
-11	-11.4462
▁என்றி	-11.4463
ino	-11.4464
▁நோர்	-11.4464
▁Asian	-11.4464
பேர	-11.4464
▁காக	-11.4467
▁சோனி	-11.4467
ச்சூர்	-11.4468
▁ஆற்றுப்	-11.4468
▁ராணா	-11.4469
▁சார்ப	-11.447
காளியம்மன்	-11.447
▁128	-11.4471
east	-11.4472
சோழ	-11.4473
திற்கு	-11.4474
details	-11.4474
▁மாதவன்	-11.4475
></	-11.4475
பூரின்	-11.4476
இர	-11.4477
சிங்கம்	-11.4477
ொன்	-11.4478
▁குப்ப	-11.4479
▁சதுப்பு	-11.4479
:1936	-11.4479
▁relief	-11.4481
▁அபிவிருத்தி	-11.4481
▁need	-11.4481
▁செயற்பாடு	-11.4481
▁விளங்குகின்றது	-11.4481
மீன்கள்	-11.4482
▁way	-11.4482
▁message	-11.4483
▁பள்ளத்தாக்கில்	-11.4484
160	-11.4485
▁சங்	-11.4488
▁முக்தி	-11.4489
post	-11.4489
▁பட்டங்கள்	-11.4491
▁Britannica	-11.4492
▁மாவட்டத்தை	-11.4495
▁ஏக	-11.4496
International	-11.4496
▁செலுத்தும்	-11.4497
inal	-11.4497
ாடு	-11.4499
▁சிங்கம்	-11.45
550	-11.45
▁published	-11.4502
▁அரசியல	-11.4505
வுள்ள	-11.4505
▁-20	-11.4506
▁தோப்பு	-11.4507
▁தலைநகரமான	-11.4508
▁தார	-11.4509
▁ரெட்	-11.451
▁"#	-11.4511
▁விளங்கும்	-11.4511
▁Birds	-11.4513
▁ஆலி	-11.4515
ெண்ண	-11.4515
▁பிரகாச	-11.4517
site	-11.4519
▁பானு	-11.452
▁அஷ்ட	-11.452
▁நவா	-11.4521
▁காண்ட	-11.4524
▁Engineering	-11.4525
▁Modern	-11.4525
▁இறக்கும்	-11.4526
111	-11.4526
▁(1999)	-11.4527
ாவூர்	-11.4528
▁பிரதிநிதியாக	-11.453
▁form	-11.453
▁வடகரை	-11.4531
qua	-11.4533
வேரி	-11.4533
▁ராஜேந்திரன்	-11.4533
▁கொர	-11.4535
▁127	-11.4536
▁Nu	-11.4538
▁Kerala	-11.4539
▁கர்நாடகாவின்	-11.4539
▁கால்பந்துக்	-11.4542
▁பதவியை	-11.4542
oz	-11.4542
▁Photo	-11.4544
vers	-11.4544
ஃபோர்	-11.4545
▁மாமா	-11.4545
சோன்	-11.4545
▁நீராவி	-11.4549
infoelection	-11.455
1.6	-11.4551
ony	-11.4551
▁நிற்க	-11.4552
ருகு	-11.4553
hir	-11.4554
கொடி	-11.4556
செக்ஸ்	-11.4556
▁சேவையை	-11.4556
▁வாரிசு	-11.4558
▁Tur	-11.4558
ாமை	-11.4559
▁நகரங்களுக்கு	-11.456
Ru	-11.456
க்கூட்ட	-11.456
ொன்றை	-11.4561
▁size	-11.4561
▁சவுத்	-11.4562
▁inter	-11.4562
fin	-11.4566
நகரில்	-11.4567
▁ஆலப்புழை	-11.4568
▁வேண்ட	-11.4571
▁பூங்காவின்	-11.4571
வழங்கப்படுகின்றன	-11.4571
▁space	-11.4572
▁நரசிங்க	-11.4572
சியன்	-11.4572
▁people	-11.4572
▁ராஜ்குமார்	-11.4573
▁இணைப்ப	-11.4573
▁நிகழ்ச்சியில்	-11.4574
▁சண்முகம்	-11.4574
tech	-11.4577
▁நூற்றியெட்டு	-11.4578
▁பராமரிக்க	-11.4578
▁தீவிரவாத	-11.4579
▁வெங்காயம்	-11.4579
ிணைப்பு	-11.458
220	-11.4581
மேல	-11.4581
UN	-11.4581
▁வெளியாகும்	-11.4582
மார	-11.4583
▁அமி	-11.4583
El	-11.4584
anj	-11.4585
▁தீய	-11.4587
டையும்	-11.4588
ஃபெ	-11.4589
▁வேடத்தில்	-11.459
▁நூற்றாண்ட	-11.459
▁கொள	-11.4591
▁poster	-11.4593
▁111	-11.4593
▁எல்ல	-11.4594
▁வெண்கலப்	-11.4594
ந்தலை	-11.4594
பச்சை	-11.4595
▁விவாத	-11.4596
▁சிதை	-11.4597
lus	-11.4597
▁சோதி	-11.4598
▁ஒளிப்பதிவு	-11.4599
:2005	-11.46
sur	-11.4602
▁1892	-11.4604
gon	-11.4605
ஜன	-11.4608
Ku	-11.461
▁விண்கலம்	-11.4611
▁day	-11.4612
▁நாசி	-11.4613
▁படுகை	-11.4613
▁உசிலம்பட்டி	-11.4614
▁தாமோதர	-11.4614
▁காப்புரிமை	-11.4614
▁அழைக்கிறார்கள்	-11.4614
▁எல்லையை	-11.4615
▁உலகளவில்	-11.4616
ஷ்ய	-11.4616
▁ஜெயராம்	-11.4617
▁பதிப்ப	-11.4619
▁பாண்டே	-11.4621
▁எழுச்சி	-11.4621
▁இதழ்களிலும்	-11.4621
▁கோயில	-11.4621
▁கலாச்சாரம்	-11.4623
▁உத்த	-11.4623
▁TV	-11.4623
▁Star	-11.4624
கண்டம்	-11.4625
▁Reference	-11.4626
ஸ்தானி	-11.4627
▁இப்பட	-11.4628
▁கோடைகால	-11.4632
NC	-11.4632
நாயக்கன்பாளையம்	-11.4633
மாகி	-11.4634
▁online	-11.4635
▁வச	-11.464
▁கல்விக்கழக	-11.4641
▁சாலைப்	-11.4644
ேஷ்வர்	-11.4647
ாலய	-11.4648
▁சேகரிப்பு	-11.4652
▁பெல	-11.4657
வெள்ளி	-11.4657
▁ஜனாதிபதி	-11.4658
▁நிகோபார்	-11.4658
▁வடகிழக்கே	-11.4658
▁மகிழ்ச்சி	-11.4658
state	-11.4659
▁நவநீத	-11.4659
▁Hi	-11.4659
▁சுபா	-11.4659
▁ஆணையர்	-11.466
▁பாடலாக	-11.4661
▁அன்னா	-11.4661
▁122	-11.4662
▁சுந்தரராஜன்	-11.4663
▁பூண்டு	-11.4663
▁உத	-11.4663
▁Africa	-11.4664
▁ஆண்டிலிருந்து	-11.4667
▁இயக்கவியல்	-11.4669
even	-11.467
▁பற்	-11.4672
▁சம்பந்தர்	-11.4672
▁2.5	-11.4672
▁பிரான்ஸ்	-11.4674
iyur	-11.4674
margin	-11.4677
▁இருப்பிட	-11.4677
▁தொடை	-11.4679
ரைட்	-11.4679
ிருப்பு	-11.468
வேறு	-11.468
▁test	-11.4682
:1946	-11.4683
னிகா	-11.4683
▁தீவிரமாக	-11.4688
▁நன்மை	-11.4689
▁ஈராக்	-11.469
▁நியோ	-11.469
▁Wiki	-11.4691
குண்டா	-11.4692
வேடு	-11.4692
▁இந்தோனேசிய	-11.4693
ano	-11.4694
▁ஆழம்	-11.4695
▁வாசு	-11.4695
▁சுட்ட	-11.4695
▁ஹில்	-11.4698
▁இய	-11.47
சூலை	-11.47
▁இரவில்	-11.4701
▁நாச்சியார்	-11.4702
▁சீனப்	-11.4702
ங்கின்	-11.4703
administration	-11.4703
Section	-11.4703
▁பத்தாண்டு	-11.4704
▁must	-11.4704
▁வளம்	-11.4705
டாங்	-11.4705
AD	-11.4705
ப்பட்டை	-11.4706
▁அலுவல்முறை	-11.4707
▁07	-11.4708
▁தொடரை	-11.4708
▁Mah	-11.4708
▁காட்டிலும்	-11.4709
▁மங்க	-11.4709
▁ஒரிசா	-11.471
▁தேரோட்டம்	-11.4711
▁சாராத	-11.4711
▁உயரமும்	-11.4711
வியலாளர்	-11.4711
▁பன்முக	-11.4712
:2008	-11.4714
தீஸ்வரர்	-11.4716
▁இந்தியாவை	-11.4717
acy	-11.4718
▁பக்கங்களை	-11.4718
▁நூற்	-11.4721
▁வரலாற்றுச்	-11.4721
▁மக்கா	-11.4721
antha	-11.4722
late	-11.4722
ஹொங்கொங்	-11.4722
▁Ter	-11.4724
▁படும்	-11.4725
▁Os	-11.4725
▁இழப்பு	-11.4726
dies	-11.4726
ாரம்	-11.4726
900	-11.4728
▁நிறுத்தி	-11.4729
mad	-11.4729
▁ஆல்ககால்	-11.4731
gas	-11.4731
▁கற்றல்	-11.4732
▁நினைவுச்சின்ன	-11.4732
▁லீலா	-11.4734
▁Village	-11.4736
▁நூலுக்கு	-11.4737
▁நோக்கமாகக்	-11.4739
George	-11.474
▁நகரமாக	-11.4741
மண்ட்	-11.4741
ங்காய்	-11.4744
▁எசுப்பானியா	-11.4745
▁Bio	-11.4746
▁மலைப்	-11.4747
▁Collection	-11.4748
▁Survey	-11.4748
▁சுயசரிதை	-11.4748
:1937	-11.4748
▁வைத்தியநாத	-11.4749
▁மெதுவாக	-11.475
▁மங்களூர்	-11.4751
▁155	-11.4751
▁மலைத்தொடரில்	-11.4752
▁மொழிமாற்றம்	-11.4752
▁சிக்கலான	-11.4753
:1939	-11.4755
▁வல்சாடு	-11.4756
▁அறிவியலில்	-11.4757
▁வரைகலை	-11.4757
▁பிற்காலத்தில்	-11.4758
▁மரபுகள்	-11.4762
▁வள்ளல்	-11.4763
புலி	-11.4765
lands	-11.4766
Raj	-11.4766
சாகி	-11.4767
▁போலந்து	-11.4768
▁பிரகாசு	-11.4768
▁சதி	-11.4769
▁சூரியக்	-11.4771
▁1887	-11.4772
▁நியாய	-11.4772
▁பாசுபேட்டு	-11.4772
▁கோலி	-11.4773
நல	-11.4775
▁புளோரின்	-11.4775
▁பிட்	-11.4776
▁கிட்ட	-11.4778
▁பழமை	-11.4778
-%	-11.478
▁வள்ள	-11.4783
hel	-11.4785
▁உண்மையில்	-11.4785
▁பிணைய	-11.4787
▁அறிவியலாளர்	-11.4788
ரோடு	-11.4789
▁before	-11.4789
▁மேசை	-11.479
▁வோ	-11.4792
▁குலசேகர	-11.4792
▁Green	-11.4793
▁குட்டை	-11.4793
:1942	-11.4793
▁மிசுரா	-11.4794
▁திருச்சபையின்	-11.4794
▁தலைவன	-11.4794
▁சார்லசு	-11.4794
பாட்	-11.4795
mes	-11.4796
ஜென்	-11.4797
▁எழுத்துத்	-11.4797
▁தேனீ	-11.4799
▁சுப்ரமணிய	-11.4799
▁ராஜேஷ்	-11.4799
▁வார்த்தைகளை	-11.48
▁சரவண	-11.4802
விளக்கு	-11.4802
▁காகலி	-11.4803
▁அடைந்தார்	-11.4803
En	-11.4803
▁இடங்களிலும்	-11.4803
▁அகலம்	-11.4804
▁வந்தவர்	-11.4804
▁கண்கள்	-11.4805
▁அணைக்கட்டு	-11.4806
head	-11.4806
▁கிறிஸ்து	-11.4806
ayan	-11.4807
hang	-11.481
ளோ	-11.4813
பிலி	-11.4813
▁சந்திப்புகள்	-11.4813
▁Union	-11.4813
hara	-11.4814
▁Raja	-11.4815
▁விரும்பும்	-11.4815
1.3	-11.4815
ஃபர்	-11.4816
uda	-11.4816
▁ஞா	-11.4816
பாலின	-11.4817
▁பாட்டர்	-11.4817
▁கடும்	-11.4817
▁காப்பிய	-11.4818
▁ஆந்திரா	-11.4819
▁அசுர	-11.4819
அர	-11.482
சோடியம்	-11.482
▁உந்து	-11.4821
ராசி	-11.4824
▁ஆட்டு	-11.4826
தலா	-11.4826
1925	-11.4827
dai	-11.4827
error	-11.4827
ியற்	-11.4827
▁பொம்ம	-11.4828
புளோரைடு	-11.4829
cms	-11.4829
▁தாக்கம்	-11.4829
ரவி	-11.4831
▁குளி	-11.4832
▁விளையாட்டுக்கழக	-11.4833
▁வினோத்	-11.4835
▁பிரதிநிதி	-11.4835
els	-11.4838
▁தொழிலாக	-11.4838
சைல	-11.4838
stor	-11.4838
▁பாட்டி	-11.4839
ாசி	-11.4839
▁because	-11.4839
▁கலைக்களஞ்சியம்	-11.4841
▁கராச்சி	-11.4842
▁comp	-11.4843
▁start	-11.4843
▁வாசகர்	-11.4844
lect	-11.4845
▁1880	-11.4846
▁அளவ	-11.4846
கோபால	-11.4847
ந்தம்	-11.4848
திருத்தந்தை	-11.4848
▁தரப்பட்டுள்ளன	-11.4852
மங்கை	-11.4855
▁வாழ்நாள்	-11.4856
கோள	-11.4856
குயி	-11.4856
▁,'	-11.4857
oi	-11.486
zh	-11.4861
175	-11.4863
▁தொழிலதிபர்	-11.4863
▁களஞ்சியம்	-11.4864
▁புனைவு	-11.4865
▁மைதானம்	-11.4865
▁சக்கரவர்த்தி	-11.4866
ped	-11.4866
Mad	-11.4867
ௌலி	-11.4872
▁வைத்துக்	-11.4872
▁போதி	-11.4872
ப்படுத்துகிறார்	-11.4873
பாபு	-11.4875
▁நிக்கோ	-11.4878
▁sign	-11.4878
chb	-11.4879
கம்போடிய	-11.4881
▁Work	-11.4881
▁Ya	-11.4884
▁அமாவாசை	-11.4884
▁support	-11.4884
indiatimes	-11.4885
பரப்பு	-11.4886
:1934	-11.4886
▁மாநாட்டில்	-11.4886
▁தொழிற்சங்க	-11.4886
பாக்கித்தான	-11.4886
▁சென்றாய	-11.4886
oid	-11.489
▁கிழக்க	-11.489
▁தேவன்	-11.4891
▁தாராபுரம்	-11.4891
ost	-11.4892
▁கணிதவியலாளர்	-11.4893
ுக்க	-11.4893
ets	-11.4894
▁குறைந்து	-11.4894
▁நற்	-11.4895
ப்பந்து	-11.4898
▁பொருள்கள்	-11.4898
▁கிறித்தவக்	-11.4898
▁நாணயங்கள்	-11.4899
னாவில்	-11.4899
▁Site	-11.49
▁உருவாகிய	-11.49
▁கருத்துக்களை	-11.4901
css	-11.4904
▁அங்கேரி	-11.4904
ison	-11.4905
▁மாதாந்த	-11.4906
▁மெட்டா	-11.4907
வரலாறு	-11.4907
▁இறைவன	-11.491
▁சிந்த	-11.491
▁நீள்	-11.491
▁1894	-11.4913
▁கணிக்க	-11.4914
வனை	-11.4914
▁சியோ	-11.4916
ீட	-11.4918
▁மிசோரம்	-11.4918
tus	-11.4918
MS	-11.4918
▁மதுரையில்	-11.4919
ிலே	-11.492
4(	-11.4921
▁பத்திரிகையாளர்	-11.4921
▁(7	-11.4921
▁மூலவராக	-11.4923
ர்சு	-11.4923
palli	-11.4924
▁செயற்	-11.4924
▁சீனி	-11.4926
▁sc	-11.4927
கலம்	-11.4928
டக	-11.4928
▁infobox	-11.493
▁மர்	-11.493
▁யேசுதாஸ்	-11.493
▁வழித்தோன்றல	-11.493
▁சரசுவதி	-11.493
▁அண்மை	-11.4931
cut	-11.4932
▁ஆத்தி	-11.4932
▁ஜப்பான்	-11.4933
▁ஒழுக்க	-11.4933
▁fr	-11.4933
▁America	-11.4934
▁ஜெய்சங்கர்	-11.4936
கணினியியல்	-11.4936
mps	-11.4938
லைன்	-11.4938
=""|	-11.4938
▁region	-11.4941
▁பிறந்தவர்கள்	-11.4942
▁நமது	-11.4942
▁ஆரோக்கிய	-11.4943
▁சன்ன	-11.4945
▁குந்த	-11.4946
▁பழங்கள்	-11.4946
▁மதுர	-11.4947
▁படத்திற்கு	-11.4948
▁காத	-11.4948
▁party	-11.4948
▁திறப்பு	-11.4948
▁கட்டப்பட்டு	-11.4949
-2009	-11.4949
▁சோதிட	-11.495
▁அமீன்	-11.495
▁பிசுமத்	-11.495
▁வடிவேலு	-11.4951
▁அறக்கட்டளையின்	-11.4952
▁தட்ட	-11.4952
▁Hu	-11.4953
▁மதச்சார்பற்ற	-11.4953
சிவாஜி	-11.4954
uck	-11.4955
▁தைட்டானியம்	-11.4958
▁திரைப்	-11.4959
ாண்மை	-11.4959
த்தளம்	-11.4959
▁சந்திரா	-11.4959
ப்பட்டிருக்கும்	-11.496
பிரிட்	-11.4961
மாலா	-11.4961
த்துக்காக	-11.4963
▁நடத்தப்பட்டது	-11.4966
ClO	-11.4966
▁சிலந்தி	-11.4967
▁இச்சொல்	-11.4967
▁ரத்த	-11.4968
▁பிற்கால	-11.4968
▁விண்	-11.4968
▁நீதிமன்றத்தில்	-11.497
▁முர்	-11.4974
▁தேர	-11.4976
kuppam	-11.4976
▁மென்மையான	-11.4977
▁Internet	-11.4977
▁வாடி	-11.4977
▁செல்லியம்மன்	-11.4978
▁படிப்பினை	-11.4979
▁நிலப்பரப்பில்	-11.4979
▁புள்ளியியல்	-11.498
▁ஏற்படுத்தப்பட்ட	-11.498
Pages	-11.498
ஸ்தான	-11.498
▁பாடும்	-11.4981
பத்தி	-11.4981
▁வெளியிடுகிறது	-11.4981
ப்புழா	-11.4983
▁தாக்கூர்	-11.4986
▁பார்வையாளர்	-11.4986
pop	-11.4988
▁கொழும்பில	-11.4988
▁இன்ன	-11.499
▁மாவட்டமும்	-11.499
சுதா	-11.4993
த்துவம்	-11.4995
▁மைல்கள்	-11.4995
▁pl	-11.4995
▁தெரியாத	-11.4995
▁ராணுவ	-11.4995
▁புற்று	-11.4997
▁பரிணாம	-11.4999
▁ஆலம்	-11.4999
David	-11.5001
value	-11.5002
சாலி	-11.5002
▁மயில	-11.5006
▁செல்வன்	-11.5006
▁இதற்கான	-11.5007
பீன்	-11.5007
ஜியா	-11.5008
▁ஆற்றிய	-11.5008
gy	-11.501
1911	-11.501
விடு	-11.5012
னோன்	-11.5013
க்கோயில்	-11.5013
▁மாணவி	-11.5014
▁பயங்கரவாத	-11.5015
க்கார்	-11.5015
▁முகாம்	-11.5016
சாரா	-11.5017
▁பயின்ற	-11.5017
ாணி	-11.5017
▁தத்தா	-11.5021
▁எழுத்துமுறை	-11.5021
▁விஜயகுமார்	-11.5021
▁யோகா	-11.5021
▁இவ்வாறான	-11.5023
▁புனைகதை	-11.5023
1974	-11.5023
▁பரோ	-11.5024
▁படுக்கை	-11.5024
▁ஆகியவற்றுடன்	-11.5024
▁என்பவற்ற	-11.5025
▁சிவஞான	-11.5025
▁நிலத்தை	-11.5027
க்கண்ட	-11.5028
ular	-11.503
▁ரியா	-11.5031
▁ஜொ	-11.5031
▁10,000	-11.5032
▁Code	-11.5033
▁பற	-11.5036
▁பயன்பட	-11.5037
▁பள்ளியிலும்	-11.5038
மெல்	-11.5039
nav	-11.5041
▁நீங்க	-11.5042
▁அமிலத்துடன	-11.5042
▁வன்னி	-11.5043
▁சுப்பிரமணியன்	-11.5045
▁none	-11.5045
2!3	-11.5045
▁செய்யப்பட	-11.5046
▁கோலாலம்பூர்	-11.5047
▁1886	-11.5047
மட்டக்களப்பு	-11.5048
கூகுள்	-11.5048
▁தீர	-11.5049
Elections	-11.5049
▁நகை	-11.505
▁வெங்கட்	-11.505
சனின்	-11.5051
ேஷன்	-11.5053
தெரு	-11.5053
ேஸ்வரம்	-11.5053
▁அனில்	-11.5054
க்கிளி	-11.5054
▁மந்திரி	-11.5056
▁சஞ்சிகைகள்	-11.5057
▁தொழில்கள்	-11.5058
EE	-11.5063
ுடனான	-11.5064
▁Fo	-11.5064
uru	-11.5068
▁சுண்ணாம்பு	-11.5069
DCHB	-11.5069
fl	-11.5069
▁சொக்க	-11.507
▁எனுமிடத்தில்	-11.507
▁அசோகன்	-11.507
சமணம்	-11.5071
▁இறால்	-11.5071
கத்தை	-11.5072
▁திருப்பு	-11.5073
▁விபர	-11.5075
வாக்கிய	-11.5076
▁ஹீ	-11.5077
போன	-11.5078
பூமி	-11.5078
1923	-11.5078
6,000	-11.508
பாட்டை	-11.508
▁பகுதியும்	-11.508
முழு	-11.5082
▁பெறப்படும்	-11.5082
Do	-11.5083
Sub	-11.5084
▁நிர்	-11.5084
▁விசு	-11.5084
▁Pub	-11.5086
170	-11.5086
▁Sen	-11.5087
ச்செல்	-11.5087
ண்டல்	-11.5087
Page	-11.5088
ராம்பூர்	-11.5088
ளிக்கும்	-11.5088
▁கர்ண	-11.5091
chin	-11.5091
▁மிருக	-11.5093
▁தென்னை	-11.5094
▁தொங்க	-11.5095
மங்கோலிய	-11.5095
▁எல்லைகள்	-11.5096
▁சிரா	-11.5096
▁பிரிக்கப்பட்ட	-11.5098
▁குசராத்தி	-11.5099
▁தகடு	-11.51
▁700	-11.5101
▁Sciences	-11.5102
சுதந்திர	-11.5104
▁மன்னராக	-11.5105
க்கடவு	-11.5105
▁சரணாலய	-11.5105
▁விவிலிய	-11.5106
▁ஒப்புமை	-11.5107
புரு	-11.5107
யற்	-11.5107
ோரி	-11.5107
▁கோட்டத்தில்	-11.5108
கன்னட	-11.5108
▁மானியக்	-11.5109
▁சட	-11.5111
▁144	-11.5111
▁archive	-11.5112
அரச	-11.5112
சயன	-11.5112
ப்பாட்ட	-11.5114
▁பட்டாம்பூச்சி	-11.5114
வதற்காக	-11.5115
▁பிரான்சிய	-11.5116
▁எக்ஸ்பிரஸ்	-11.5116
▁நவகிரகம்	-11.5116
▁வெளியுறவு	-11.5116
▁திருப்பரங்குன்ற	-11.5116
▁செய்தித்தாள்	-11.5117
▁காலமாக	-11.5118
▁Cup	-11.5118
குடியிருப்பு	-11.5118
▁நைட்ரசன்	-11.5118
▁விசிறி	-11.5118
eer	-11.5121
▁cat	-11.5121
▁நார	-11.5121
▁பத்திரிக்கை	-11.5122
gsub	-11.5123
டிஸ்	-11.5123
▁பியா	-11.5125
▁ஒடிசாவின்	-11.5127
Poly	-11.5128
▁Tu	-11.5129
1924	-11.5129
Char	-11.513
▁பகை	-11.513
▁கட்டுப்பாட்ட	-11.5131
புனே	-11.5133
யுடனும்	-11.5133
▁வடிவமைப்ப	-11.5134
pol	-11.5135
▁Chi	-11.5137
மீத்தேன	-11.5138
▁தமிழர	-11.5139
மடம்	-11.514
மூட்ட	-11.5141
நாயக்கன்	-11.5141
ria	-11.5142
med	-11.5142
சப்பானிய	-11.5143
▁வாத	-11.5145
ப்பினை	-11.5145
ாளரும்	-11.5146
emb	-11.5147
▁தற்காலத்தில்	-11.5148
▁மஹ	-11.5151
காவின்	-11.5151
▁சத்து	-11.5154
▁இக்கிராம	-11.5158
▁மேற்கிந்தியத்	-11.5158
பெற	-11.5159
▁வாசி	-11.516
library	-11.5163
▁காட்டுமன்னார்கோ	-11.5163
▁Yadav	-11.5163
▁சாஸ்திரி	-11.5163
▁டைய	-11.5163
▁சிலைகள்	-11.5164
▁தற்	-11.5164
▁திருமயம்	-11.5164
▁போரை	-11.5164
▁சாதியினரும்	-11.5165
▁பெரும்பான்மை	-11.5168
▁Wi	-11.5169
ராதாரவி	-11.517
ப்பிய	-11.5171
inc	-11.5171
▁இயக்குநரும்	-11.5175
▁வளரக்கூடியது	-11.5176
▁Gi	-11.5176
▁வெளியிட்டுள்ளது	-11.5177
▁கட்டுரையை	-11.5177
யப்ப	-11.5178
▁எர்ணாகுளம்	-11.5179
சாகர்	-11.5179
ப்பட்டதாக	-11.5179
▁ஜப்பானிய	-11.518
▁Peter	-11.518
▁இயக்கங்கள்	-11.5181
ராட்	-11.5183
ரிங்	-11.5184
▁கல்வியியல்	-11.5184
நிலைய	-11.5185
pattu	-11.5185
▁பேரடை	-11.5186
ிருந்தன	-11.5187
kottai	-11.519
▁மோதல்	-11.519
டோல்	-11.5191
gai	-11.5192
▁ஈய	-11.5192
▁காணவும்	-11.5192
▁தெற்குப்	-11.5196
▁வந்துள்ளது	-11.5198
▁எதிர்ப்புப்	-11.5199
▁0.9	-11.5203
▁auto	-11.5203
▁Dar	-11.5203
வினு	-11.5203
▁வரலாற்றுப்	-11.5204
mbox	-11.5205
▁வவுனியா	-11.5206
4!1	-11.5208
▁சூழ்ந்த	-11.5209
▁ஆயிரக்கணக்கான	-11.521
பிட்	-11.521
▁தணிக்கை	-11.5211
try	-11.5211
▁இதழியல்	-11.5211
▁பம்பாய்	-11.5211
▁அதிரடி	-11.5211
▁முத்தையா	-11.5212
setup	-11.5212
▁விபத்தில்	-11.5212
▁மலபார்	-11.5213
▁இளையோர்	-11.5214
▁ஓசை	-11.5215
ூரு	-11.5215
▁Pakistan	-11.5216
:2021	-11.5216
р	-11.5217
▁ராயல்	-11.5217
▁விளக்குகிறது	-11.5221
குளோரைடு	-11.5221
▁அங்கிருந்து	-11.5223
▁மரியாதை	-11.5224
பிரதேச	-11.5226
▁124	-11.5226
ida	-11.5226
▁துவங்கி	-11.5226
பாண்டியன்	-11.5227
▁சிறுத்தை	-11.5229
▁இறகு	-11.5229
▁ஓட்டம்	-11.5229
▁உருவம்	-11.5229
▁இட்டு	-11.5231
ender	-11.5233
▁சுவீடன்	-11.5236
sel	-11.5237
மொழிகள்	-11.5237
▁வடிவத்தை	-11.5237
வளம்	-11.5239
ராவின்	-11.524
▁துரித	-11.524
▁வேண்டு	-11.5241
▁சொற்களை	-11.5243
▁மட்டையாளர	-11.5244
▁சொல்லுக்கு	-11.5245
▁Bharat	-11.5246
▁அண்டு	-11.5246
▁public	-11.5247
▁மகாதேவ	-11.5248
மேனி	-11.5248
▁Kan	-11.525
விலங்கு	-11.5252
▁மகளும்	-11.5255
rt	-11.5256
▁Health	-11.5257
▁கூகிள்	-11.5257
▁படக்காட்சியகம்	-11.5257
▁அறுபுளோரோ	-11.5258
▁முடியாட்சி	-11.5258
▁பணியகம்	-11.5259
▁இம்ம	-11.5259
▁என்பதே	-11.5261
▁Res	-11.5261
ago	-11.5262
▁இதனைக்	-11.5263
▁கோவில	-11.5263
▁முப்	-11.5264
astro	-11.5264
▁சந்தையில்	-11.5264
ங்களி	-11.5266
▁கெல்	-11.5269
▁Ran	-11.5269
indi	-11.527
▁பொறுப்ப	-11.5272
▁ஆய்வில்	-11.5272
ிக்கும்	-11.5274
▁இதனைத்	-11.5275
▁(14	-11.5277
▁Mer	-11.5277
▁மாவ	-11.5281
Ho	-11.5284
▁வெல்	-11.5286
▁கொல	-11.5287
height	-11.5288
பாட்டி	-11.5288
▁நாட்காட்டியின்	-11.5289
▁fi	-11.5289
mw	-11.5292
▁தில்	-11.5293
▁கண்டிகை	-11.5295
▁கொழு	-11.5297
இசையமைப்பாளர்கள்	-11.5297
▁URL	-11.5301
▁ஜம்	-11.5301
▁ja	-11.5303
▁வேணுகோபால	-11.5304
▁எஃகு	-11.5305
▁குடமுழுக்கு	-11.5305
▁நன்னிலம்	-11.5305
▁விக்கிரவாண்டி	-11.5305
▁ஏதேனும	-11.5306
▁Order	-11.5306
▁முடித்துள்ளார்	-11.5308
led	-11.5309
▁ஹால்	-11.5309
▁Wa	-11.531
Ge	-11.5312
▁அதிர்வெண்	-11.5313
▁குறுக்க	-11.5314
▁ஈரப்பத	-11.5315
▁ரோஜா	-11.5315
▁கூறுகின்றனர்	-11.5316
ங்களாகப்	-11.5316
▁அகர்வால்	-11.5316
▁மார்ட்டின்	-11.5319
▁இருபத்தி	-11.532
ரெக்	-11.5321
▁டெர்	-11.5323
▁குழப்ப	-11.5324
▁செய்தவர்	-11.5326
▁law	-11.5326
▁Cre	-11.5327
▁வேதியியலாளர்	-11.5327
eh	-11.5328
letter	-11.5328
▁1885	-11.5329
▁இணையத்தில்	-11.5329
ன்டர்	-11.5331
▁பிலி	-11.5331
▁கல்வித்	-11.5331
▁உச்சியில்	-11.5332
▁ரிக்	-11.5335
▁சுதந்திரம்	-11.5336
▁தெரிந்த	-11.5336
இதழ்	-11.5336
ஜார்	-11.5339
▁இராமன்	-11.534
▁கவுர்	-11.534
போன்ற	-11.5341
amangalam	-11.5341
▁Natural	-11.5342
itz	-11.5343
▁மேளம்	-11.5344
▁பரவி	-11.5344
திரையரங்க	-11.5344
முற்ற	-11.5345
பிரதேசத்திலுள்ள	-11.5347
யடைந்த	-11.5347
காந்திமதி	-11.5347
பாஸ்	-11.5348
ம்பல	-11.5349
▁தெரியும்	-11.535
▁ஈட்டி	-11.535
▁விளையாடுகிறார்	-11.535
tel	-11.5351
▁அருணாச்சல	-11.5353
குத்தாலம்	-11.5353
▁டேனியல்	-11.5353
▁genus	-11.5353
▁திருவள்ளுவர்	-11.5353
ுள்ளதாக	-11.5356
green	-11.5357
தாங்கல்	-11.5357
▁வைத்திருந்த	-11.5358
▁பரணி	-11.5359
மானிய	-11.536
▁ஈடுபட்டார்	-11.536
▁எட்டி	-11.536
▁நூலாக	-11.5362
tics	-11.5362
TE	-11.5363
▁etc	-11.5363
▁முதன்மைக்	-11.5364
▁இருக்கை	-11.5365
டெட்	-11.5365
▁music	-11.5365
▁வினையூக்கி	-11.5367
▁நீராற்பகுப்பு	-11.5368
▁லண்டன்	-11.5369
[...]
